{
  "version": "1.0",
  "truncation": null,
  "padding": null,
  "added_tokens": [
    {
      "id": 0,
      "content": "<|pad|>",
      "single_word": false,
      "lstrip": false,
      "rstrip": false,
      "normalized": false,
      "special": true
    },
    {
      "id": 1,
      "content": "<|startoftext|>",
      "single_word": false,
      "lstrip": false,
      "rstrip": false,
      "normalized": false,
      "special": true
    },
    {
      "id": 3,
      "content": "<|unk|>",
      "single_word": false,
      "lstrip": false,
      "rstrip": false,
      "normalized": false,
      "special": true
    },
    {
      "id": 518,
      "content": "<|im_start|>",
      "single_word": false,
      "lstrip": false,
      "rstrip": false,
      "normalized": false,
      "special": true
    },
    {
      "id": 519,
      "content": "<|im_end|>",
      "single_word": false,
      "lstrip": false,
      "rstrip": false,
      "normalized": false,
      "special": true
    },
    {
      "id": 520,
      "content": "<|object_ref_start|>",
      "single_word": false,
      "lstrip": false,
      "rstrip": false,
      "normalized": false,
      "special": true
    },
    {
      "id": 521,
      "content": "<|object_ref_end|>",
      "single_word": false,
      "lstrip": false,
      "rstrip": false,
      "normalized": false,
      "special": true
    },
    {
      "id": 522,
      "content": "<|box_start|>",
      "single_word": false,
      "lstrip": false,
      "rstrip": false,
      "normalized": false,
      "special": true
    },
    {
      "id": 523,
      "content": "<|box_end|>",
      "single_word": false,
      "lstrip": false,
      "rstrip": false,
      "normalized": false,
      "special": true
    },
    {
      "id": 524,
      "content": "<|quad_start|>",
      "single_word": false,
      "lstrip": false,
      "rstrip": false,
      "normalized": false,
      "special": true
    },
    {
      "id": 525,
      "content": "<|quad_end|>",
      "single_word": false,
      "lstrip": false,
      "rstrip": false,
      "normalized": false,
      "special": true
    },
    {
      "id": 526,
      "content": "<|vision_start|>",
      "single_word": false,
      "lstrip": false,
      "rstrip": false,
      "normalized": false,
      "special": true
    },
    {
      "id": 527,
      "content": "<|vision_end|>",
      "single_word": false,
      "lstrip": false,
      "rstrip": false,
      "normalized": false,
      "special": true
    },
    {
      "id": 528,
      "content": "<|vision_pad|>",
      "single_word": false,
      "lstrip": false,
      "rstrip": false,
      "normalized": false,
      "special": true
    },
    {
      "id": 529,
      "content": "<|image_pad|>",
      "single_word": false,
      "lstrip": false,
      "rstrip": false,
      "normalized": false,
      "special": true
    },
    {
      "id": 530,
      "content": "<|video_pad|>",
      "single_word": false,
      "lstrip": false,
      "rstrip": false,
      "normalized": false,
      "special": true
    },
    {
      "id": 531,
      "content": "<tool_call>",
      "single_word": false,
      "lstrip": false,
      "rstrip": false,
      "normalized": false,
      "special": false
    },
    {
      "id": 532,
      "content": "</tool_call>",
      "single_word": false,
      "lstrip": false,
      "rstrip": false,
      "normalized": false,
      "special": false
    },
    {
      "id": 533,
      "content": "<|fim_prefix|>",
      "single_word": false,
      "lstrip": false,
      "rstrip": false,
      "normalized": false,
      "special": false
    },
    {
      "id": 534,
      "content": "<|fim_middle|>",
      "single_word": false,
      "lstrip": false,
      "rstrip": false,
      "normalized": false,
      "special": false
    },
    {
      "id": 535,
      "content": "<|fim_suffix|>",
      "single_word": false,
      "lstrip": false,
      "rstrip": false,
      "normalized": false,
      "special": false
    },
    {
      "id": 536,
      "content": "<|fim_pad|>",
      "single_word": false,
      "lstrip": false,
      "rstrip": false,
      "normalized": false,
      "special": false
    },
    {
      "id": 537,
      "content": "<|repo_name|>",
      "single_word": false,
      "lstrip": false,
      "rstrip": false,
      "normalized": false,
      "special": false
    },
    {
      "id": 538,
      "content": "<|file_sep|>",
      "single_word": false,
      "lstrip": false,
      "rstrip": false,
      "normalized": false,
      "special": false
    },
    {
      "id": 539,
      "content": "<tool_response>",
      "single_word": false,
      "lstrip": false,
      "rstrip": false,
      "normalized": false,
      "special": false
    },
    {
      "id": 540,
      "content": "</tool_response>",
      "single_word": false,
      "lstrip": false,
      "rstrip": false,
      "normalized": false,
      "special": false
    },
    {
      "id": 541,
      "content": "<think>",
      "single_word": false,
      "lstrip": false,
      "rstrip": false,
      "normalized": false,
      "special": false
    },
    {
      "id": 542,
      "content": "</think>",
      "single_word": false,
      "lstrip": false,
      "rstrip": false,
      "normalized": false,
      "special": false
    }
  ],
  "normalizer": {
    "type": "Sequence",
    "normalizers": [
      {
        "type": "Replace",
        "pattern": {
          "String": " "
        },
        "content": "▁"
      }
    ]
  },
  "pre_tokenizer": null,
  "post_processor": {
    "type": "TemplateProcessing",
    "single": [
      {
        "SpecialToken": {
          "id": "<|startoftext|>",
          "type_id": 0
        }
      },
      {
        "Sequence": {
          "id": "A",
          "type_id": 0
        }
      }
    ],
    "pair": [
      {
        "SpecialToken": {
          "id": "<|startoftext|>",
          "type_id": 0
        }
      },
      {
        "Sequence": {
          "id": "A",
          "type_id": 0
        }
      },
      {
        "SpecialToken": {
          "id": "<|startoftext|>",
          "type_id": 1
        }
      },
      {
        "Sequence": {
          "id": "B",
          "type_id": 1
        }
      }
    ],
    "special_tokens": {
      "<|startoftext|>": {
        "id": "<|startoftext|>",
        "ids": [
          1
        ],
        "tokens": [
          "<|startoftext|>"
        ]
      }
    }
  },
  "decoder": {
    "type": "Sequence",
    "decoders": [
      {
        "type": "Replace",
        "pattern": {
          "String": "▁"
        },
        "content": " "
      },
      {
        "type": "ByteFallback"
      },
      {
        "type": "Fuse"
      }
    ]
  },
  "model": {
    "type": "BPE",
    "dropout": null,
    "unk_token": "<|unk|>",
    "continuing_subword_prefix": null,
    "end_of_word_suffix": null,
    "fuse_unk": true,
    "byte_fallback": true,
    "ignore_merges": false,
    "vocab": {
      "<|pad|>": 0,
      "<|startoftext|>": 1,
      "<|endoftext|>": 2,
      "<|unk|>": 3,
      "<|mask_0|>": 4,
      "<|mask_1|>": 5,
      "<|mask_2|>": 6,
      "<|mask_3|>": 7,
      "<|mask_4|>": 8,
      "<|mask_5|>": 9,
      "<|mask_6|>": 10,
      "<|mask_7|>": 11,
      "<|mask_8|>": 12,
      "<|mask_9|>": 13,
      "<|mask_10|>": 14,
      "<|mask_11|>": 15,
      "<|mask_12|>": 16,
      "<|mask_13|>": 17,
      "<|mask_14|>": 18,
      "<|mask_15|>": 19,
      "<|mask_16|>": 20,
      "<|mask_17|>": 21,
      "<|mask_18|>": 22,
      "<|mask_19|>": 23,
      "<|mask_20|>": 24,
      "<|mask_21|>": 25,
      "<|mask_22|>": 26,
      "<|mask_23|>": 27,
      "<|mask_24|>": 28,
      "<|mask_25|>": 29,
      "<|mask_26|>": 30,
      "<|mask_27|>": 31,
      "<|mask_28|>": 32,
      "<|mask_29|>": 33,
      "<|mask_30|>": 34,
      "<|mask_31|>": 35,
      "<|mask_32|>": 36,
      "<|mask_33|>": 37,
      "<|mask_34|>": 38,
      "<|mask_35|>": 39,
      "<|mask_36|>": 40,
      "<|mask_37|>": 41,
      "<|mask_38|>": 42,
      "<|mask_39|>": 43,
      "<|mask_40|>": 44,
      "<|mask_41|>": 45,
      "<|mask_42|>": 46,
      "<|mask_43|>": 47,
      "<|mask_44|>": 48,
      "<|mask_45|>": 49,
      "<|mask_46|>": 50,
      "<|mask_47|>": 51,
      "<|mask_48|>": 52,
      "<|mask_49|>": 53,
      "<|mask_50|>": 54,
      "<|mask_51|>": 55,
      "<|mask_52|>": 56,
      "<|mask_53|>": 57,
      "<|mask_54|>": 58,
      "<|mask_55|>": 59,
      "<|mask_56|>": 60,
      "<|mask_57|>": 61,
      "<|mask_58|>": 62,
      "<|mask_59|>": 63,
      "<|mask_60|>": 64,
      "<|mask_61|>": 65,
      "<|mask_62|>": 66,
      "<|mask_63|>": 67,
      "<|mask_64|>": 68,
      "<|mask_65|>": 69,
      "<|mask_66|>": 70,
      "<|mask_67|>": 71,
      "<|mask_68|>": 72,
      "<|mask_69|>": 73,
      "<|mask_70|>": 74,
      "<|mask_71|>": 75,
      "<|mask_72|>": 76,
      "<|mask_73|>": 77,
      "<|mask_74|>": 78,
      "<|mask_75|>": 79,
      "<|mask_76|>": 80,
      "<|mask_77|>": 81,
      "<|mask_78|>": 82,
      "<|mask_79|>": 83,
      "<|mask_80|>": 84,
      "<|mask_81|>": 85,
      "<|mask_82|>": 86,
      "<|mask_83|>": 87,
      "<|mask_84|>": 88,
      "<|mask_85|>": 89,
      "<|mask_86|>": 90,
      "<|mask_87|>": 91,
      "<|mask_88|>": 92,
      "<|mask_89|>": 93,
      "<|mask_90|>": 94,
      "<|mask_91|>": 95,
      "<|mask_92|>": 96,
      "<|mask_93|>": 97,
      "<|mask_94|>": 98,
      "<|mask_95|>": 99,
      "<|mask_96|>": 100,
      "<|mask_97|>": 101,
      "<|mask_98|>": 102,
      "<|mask_99|>": 103,
      "<|mask_100|>": 104,
      "<|mask_101|>": 105,
      "<|mask_102|>": 106,
      "<|mask_103|>": 107,
      "<|mask_104|>": 108,
      "<|mask_105|>": 109,
      "<|mask_106|>": 110,
      "<|mask_107|>": 111,
      "<|mask_108|>": 112,
      "<|mask_109|>": 113,
      "<|mask_110|>": 114,
      "<|mask_111|>": 115,
      "<|mask_112|>": 116,
      "<|mask_113|>": 117,
      "<|mask_114|>": 118,
      "<|mask_115|>": 119,
      "<|mask_116|>": 120,
      "<|mask_117|>": 121,
      "<|mask_118|>": 122,
      "<|mask_119|>": 123,
      "<|mask_120|>": 124,
      "<|mask_121|>": 125,
      "<|mask_122|>": 126,
      "<|mask_123|>": 127,
      "<|mask_124|>": 128,
      "<|mask_125|>": 129,
      "<|mask_126|>": 130,
      "<|mask_127|>": 131,
      "<|mask_128|>": 132,
      "<|mask_129|>": 133,
      "<|mask_130|>": 134,
      "<|mask_131|>": 135,
      "<|mask_132|>": 136,
      "<|mask_133|>": 137,
      "<|mask_134|>": 138,
      "<|mask_135|>": 139,
      "<|mask_136|>": 140,
      "<|mask_137|>": 141,
      "<|mask_138|>": 142,
      "<|mask_139|>": 143,
      "<|mask_140|>": 144,
      "<|mask_141|>": 145,
      "<|mask_142|>": 146,
      "<|mask_143|>": 147,
      "<|mask_144|>": 148,
      "<|mask_145|>": 149,
      "<|mask_146|>": 150,
      "<|mask_147|>": 151,
      "<|mask_148|>": 152,
      "<|mask_149|>": 153,
      "<|mask_150|>": 154,
      "<|mask_151|>": 155,
      "<|mask_152|>": 156,
      "<|mask_153|>": 157,
      "<|mask_154|>": 158,
      "<|mask_155|>": 159,
      "<|mask_156|>": 160,
      "<|mask_157|>": 161,
      "<|mask_158|>": 162,
      "<|mask_159|>": 163,
      "<|mask_160|>": 164,
      "<|mask_161|>": 165,
      "<|mask_162|>": 166,
      "<|mask_163|>": 167,
      "<|mask_164|>": 168,
      "<|mask_165|>": 169,
      "<|mask_166|>": 170,
      "<|mask_167|>": 171,
      "<|mask_168|>": 172,
      "<|mask_169|>": 173,
      "<|mask_170|>": 174,
      "<|mask_171|>": 175,
      "<|mask_172|>": 176,
      "<|mask_173|>": 177,
      "<|mask_174|>": 178,
      "<|mask_175|>": 179,
      "<|mask_176|>": 180,
      "<|mask_177|>": 181,
      "<|mask_178|>": 182,
      "<|mask_179|>": 183,
      "<|mask_180|>": 184,
      "<|mask_181|>": 185,
      "<|mask_182|>": 186,
      "<|mask_183|>": 187,
      "<|mask_184|>": 188,
      "<|mask_185|>": 189,
      "<|mask_186|>": 190,
      "<|mask_187|>": 191,
      "<|mask_188|>": 192,
      "<|mask_189|>": 193,
      "<|mask_190|>": 194,
      "<|mask_191|>": 195,
      "<|mask_192|>": 196,
      "<|mask_193|>": 197,
      "<|mask_194|>": 198,
      "<|mask_195|>": 199,
      "<|mask_196|>": 200,
      "<|mask_197|>": 201,
      "<|mask_198|>": 202,
      "<|mask_199|>": 203,
      "<|mask_200|>": 204,
      "<|mask_201|>": 205,
      "<|mask_202|>": 206,
      "<|mask_203|>": 207,
      "<|mask_204|>": 208,
      "<|mask_205|>": 209,
      "<|mask_206|>": 210,
      "<|mask_207|>": 211,
      "<|mask_208|>": 212,
      "<|mask_209|>": 213,
      "<|mask_210|>": 214,
      "<|mask_211|>": 215,
      "<|mask_212|>": 216,
      "<|mask_213|>": 217,
      "<|mask_214|>": 218,
      "<|mask_215|>": 219,
      "<|mask_216|>": 220,
      "<|mask_217|>": 221,
      "<|mask_218|>": 222,
      "<|mask_219|>": 223,
      "<|mask_220|>": 224,
      "<|mask_221|>": 225,
      "<|mask_222|>": 226,
      "<|mask_223|>": 227,
      "<|mask_224|>": 228,
      "<|mask_225|>": 229,
      "<|mask_226|>": 230,
      "<|mask_227|>": 231,
      "<|mask_228|>": 232,
      "<|mask_229|>": 233,
      "<|mask_230|>": 234,
      "<|mask_231|>": 235,
      "<|mask_232|>": 236,
      "<|mask_233|>": 237,
      "<|mask_234|>": 238,
      "<|mask_235|>": 239,
      "<|mask_236|>": 240,
      "<|mask_237|>": 241,
      "<|mask_238|>": 242,
      "<|mask_239|>": 243,
      "<|mask_240|>": 244,
      "<|mask_241|>": 245,
      "<|mask_242|>": 246,
      "<|mask_243|>": 247,
      "<|mask_244|>": 248,
      "<|mask_245|>": 249,
      "<|mask_246|>": 250,
      "<|mask_247|>": 251,
      "<|mask_248|>": 252,
      "<|mask_249|>": 253,
      "<|mask_250|>": 254,
      "<|mask_251|>": 255,
      "<|mask_252|>": 256,
      "<|mask_253|>": 257,
      "<|mask_254|>": 258,
      "<|mask_255|>": 259,
      "<|mask_256|>": 260,
      "<|mask_257|>": 261,
      "<|mask_258|>": 262,
      "<|mask_259|>": 263,
      "<|mask_260|>": 264,
      "<|mask_261|>": 265,
      "<|mask_262|>": 266,
      "<|mask_263|>": 267,
      "<|mask_264|>": 268,
      "<|mask_265|>": 269,
      "<|mask_266|>": 270,
      "<|mask_267|>": 271,
      "<|mask_268|>": 272,
      "<|mask_269|>": 273,
      "<|mask_270|>": 274,
      "<|mask_271|>": 275,
      "<|mask_272|>": 276,
      "<|mask_273|>": 277,
      "<|mask_274|>": 278,
      "<|mask_275|>": 279,
      "<|mask_276|>": 280,
      "<|mask_277|>": 281,
      "<|mask_278|>": 282,
      "<|mask_279|>": 283,
      "<|mask_280|>": 284,
      "<|mask_281|>": 285,
      "<|mask_282|>": 286,
      "<|mask_283|>": 287,
      "<|mask_284|>": 288,
      "<|mask_285|>": 289,
      "<|mask_286|>": 290,
      "<|mask_287|>": 291,
      "<|mask_288|>": 292,
      "<|mask_289|>": 293,
      "<|mask_290|>": 294,
      "<|mask_291|>": 295,
      "<|mask_292|>": 296,
      "<|mask_293|>": 297,
      "<|mask_294|>": 298,
      "<|mask_295|>": 299,
      "<|mask_296|>": 300,
      "<|mask_297|>": 301,
      "<|mask_298|>": 302,
      "<|mask_299|>": 303,
      "<|mask_300|>": 304,
      "<|mask_301|>": 305,
      "<|mask_302|>": 306,
      "<|mask_303|>": 307,
      "<|mask_304|>": 308,
      "<|mask_305|>": 309,
      "<|mask_306|>": 310,
      "<|mask_307|>": 311,
      "<|mask_308|>": 312,
      "<|mask_309|>": 313,
      "<|mask_310|>": 314,
      "<|mask_311|>": 315,
      "<|mask_312|>": 316,
      "<|mask_313|>": 317,
      "<|mask_314|>": 318,
      "<|mask_315|>": 319,
      "<|mask_316|>": 320,
      "<|mask_317|>": 321,
      "<|mask_318|>": 322,
      "<|mask_319|>": 323,
      "<|mask_320|>": 324,
      "<|mask_321|>": 325,
      "<|mask_322|>": 326,
      "<|mask_323|>": 327,
      "<|mask_324|>": 328,
      "<|mask_325|>": 329,
      "<|mask_326|>": 330,
      "<|mask_327|>": 331,
      "<|mask_328|>": 332,
      "<|mask_329|>": 333,
      "<|mask_330|>": 334,
      "<|mask_331|>": 335,
      "<|mask_332|>": 336,
      "<|mask_333|>": 337,
      "<|mask_334|>": 338,
      "<|mask_335|>": 339,
      "<|mask_336|>": 340,
      "<|mask_337|>": 341,
      "<|mask_338|>": 342,
      "<|mask_339|>": 343,
      "<|mask_340|>": 344,
      "<|mask_341|>": 345,
      "<|mask_342|>": 346,
      "<|mask_343|>": 347,
      "<|mask_344|>": 348,
      "<|mask_345|>": 349,
      "<|mask_346|>": 350,
      "<|mask_347|>": 351,
      "<|mask_348|>": 352,
      "<|mask_349|>": 353,
      "<|mask_350|>": 354,
      "<|mask_351|>": 355,
      "<|mask_352|>": 356,
      "<|mask_353|>": 357,
      "<|mask_354|>": 358,
      "<|mask_355|>": 359,
      "<|mask_356|>": 360,
      "<|mask_357|>": 361,
      "<|mask_358|>": 362,
      "<|mask_359|>": 363,
      "<|mask_360|>": 364,
      "<|mask_361|>": 365,
      "<|mask_362|>": 366,
      "<|mask_363|>": 367,
      "<|mask_364|>": 368,
      "<|mask_365|>": 369,
      "<|mask_366|>": 370,
      "<|mask_367|>": 371,
      "<|mask_368|>": 372,
      "<|mask_369|>": 373,
      "<|mask_370|>": 374,
      "<|mask_371|>": 375,
      "<|mask_372|>": 376,
      "<|mask_373|>": 377,
      "<|mask_374|>": 378,
      "<|mask_375|>": 379,
      "<|mask_376|>": 380,
      "<|mask_377|>": 381,
      "<|mask_378|>": 382,
      "<|mask_379|>": 383,
      "<|mask_380|>": 384,
      "<|mask_381|>": 385,
      "<|mask_382|>": 386,
      "<|mask_383|>": 387,
      "<|mask_384|>": 388,
      "<|mask_385|>": 389,
      "<|mask_386|>": 390,
      "<|mask_387|>": 391,
      "<|mask_388|>": 392,
      "<|mask_389|>": 393,
      "<|mask_390|>": 394,
      "<|mask_391|>": 395,
      "<|mask_392|>": 396,
      "<|mask_393|>": 397,
      "<|mask_394|>": 398,
      "<|mask_395|>": 399,
      "<|mask_396|>": 400,
      "<|mask_397|>": 401,
      "<|mask_398|>": 402,
      "<|mask_399|>": 403,
      "<|mask_400|>": 404,
      "<|mask_401|>": 405,
      "<|mask_402|>": 406,
      "<|mask_403|>": 407,
      "<|mask_404|>": 408,
      "<|mask_405|>": 409,
      "<|mask_406|>": 410,
      "<|mask_407|>": 411,
      "<|mask_408|>": 412,
      "<|mask_409|>": 413,
      "<|mask_410|>": 414,
      "<|mask_411|>": 415,
      "<|mask_412|>": 416,
      "<|mask_413|>": 417,
      "<|mask_414|>": 418,
      "<|mask_415|>": 419,
      "<|mask_416|>": 420,
      "<|mask_417|>": 421,
      "<|mask_418|>": 422,
      "<|mask_419|>": 423,
      "<|mask_420|>": 424,
      "<|mask_421|>": 425,
      "<|mask_422|>": 426,
      "<|mask_423|>": 427,
      "<|mask_424|>": 428,
      "<|mask_425|>": 429,
      "<|mask_426|>": 430,
      "<|mask_427|>": 431,
      "<|mask_428|>": 432,
      "<|mask_429|>": 433,
      "<|mask_430|>": 434,
      "<|mask_431|>": 435,
      "<|mask_432|>": 436,
      "<|mask_433|>": 437,
      "<|mask_434|>": 438,
      "<|mask_435|>": 439,
      "<|mask_436|>": 440,
      "<|mask_437|>": 441,
      "<|mask_438|>": 442,
      "<|mask_439|>": 443,
      "<|mask_440|>": 444,
      "<|mask_441|>": 445,
      "<|mask_442|>": 446,
      "<|mask_443|>": 447,
      "<|mask_444|>": 448,
      "<|mask_445|>": 449,
      "<|mask_446|>": 450,
      "<|mask_447|>": 451,
      "<|mask_448|>": 452,
      "<|mask_449|>": 453,
      "<|mask_450|>": 454,
      "<|mask_451|>": 455,
      "<|mask_452|>": 456,
      "<|mask_453|>": 457,
      "<|mask_454|>": 458,
      "<|mask_455|>": 459,
      "<|mask_456|>": 460,
      "<|mask_457|>": 461,
      "<|mask_458|>": 462,
      "<|mask_459|>": 463,
      "<|mask_460|>": 464,
      "<|mask_461|>": 465,
      "<|mask_462|>": 466,
      "<|mask_463|>": 467,
      "<|mask_464|>": 468,
      "<|mask_465|>": 469,
      "<|mask_466|>": 470,
      "<|mask_467|>": 471,
      "<|mask_468|>": 472,
      "<|mask_469|>": 473,
      "<|mask_470|>": 474,
      "<|mask_471|>": 475,
      "<|mask_472|>": 476,
      "<|mask_473|>": 477,
      "<|mask_474|>": 478,
      "<|mask_475|>": 479,
      "<|mask_476|>": 480,
      "<|mask_477|>": 481,
      "<|mask_478|>": 482,
      "<|mask_479|>": 483,
      "<|mask_480|>": 484,
      "<|mask_481|>": 485,
      "<|mask_482|>": 486,
      "<|mask_483|>": 487,
      "<|mask_484|>": 488,
      "<|mask_485|>": 489,
      "<|mask_486|>": 490,
      "<|mask_487|>": 491,
      "<|mask_488|>": 492,
      "<|mask_489|>": 493,
      "<|mask_490|>": 494,
      "<|mask_491|>": 495,
      "<|mask_492|>": 496,
      "<|mask_493|>": 497,
      "<|mask_494|>": 498,
      "<|mask_495|>": 499,
      "<|mask_496|>": 500,
      "<|mask_497|>": 501,
      "<|mask_498|>": 502,
      "<|mask_499|>": 503,
      "<|mask_500|>": 504,
      "<|mask_501|>": 505,
      "<|mask_502|>": 506,
      "<|mask_503|>": 507,
      "<|mask_504|>": 508,
      "<|mask_505|>": 509,
      "<|mask_506|>": 510,
      "<|mask_507|>": 511,
      "<|mask_508|>": 512,
      "<|mask_509|>": 513,
      "<|mask_510|>": 514,
      "<|mask_511|>": 515,
      "<|reserved_0|>": 516,
      "<|reserved_1|>": 517,
      "<|im_start|>": 518,
      "<|im_end|>": 519,
      "<|object_ref_start|>": 520,
      "<|object_ref_end|>": 521,
      "<|box_start|>": 522,
      "<|box_end|>": 523,
      "<|quad_start|>": 524,
      "<|quad_end|>": 525,
      "<|vision_start|>": 526,
      "<|vision_end|>": 527,
      "<|vision_pad|>": 528,
      "<|image_pad|>": 529,
      "<|video_pad|>": 530,
      "<tool_call>": 531,
      "</tool_call>": 532,
      "<|fim_prefix|>": 533,
      "<|fim_middle|>": 534,
      "<|fim_suffix|>": 535,
      "<|fim_pad|>": 536,
      "<|repo_name|>": 537,
      "<|file_sep|>": 538,
      "<tool_response>": 539,
      "</tool_response>": 540,
      "<think>": 541,
      "</think>": 542,
      "assistant": 543,
      "<|reserved_28|>": 544,
      "<|reserved_29|>": 545,
      "<|reserved_30|>": 546,
      "<|reserved_31|>": 547,
      "<|reserved_32|>": 548,
      "<|reserved_33|>": 549,
      "<|reserved_34|>": 550,
      "<|reserved_35|>": 551,
      "<|reserved_36|>": 552,
      "<|reserved_37|>": 553,
      "<|reserved_38|>": 554,
      "<|reserved_39|>": 555,
      "<|reserved_40|>": 556,
      "<|reserved_41|>": 557,
      "<|reserved_42|>": 558,
      "<|reserved_43|>": 559,
      "<|reserved_44|>": 560,
      "<|reserved_45|>": 561,
      "<|reserved_46|>": 562,
      "<|reserved_47|>": 563,
      "<|reserved_48|>": 564,
      "<|reserved_49|>": 565,
      "<|reserved_50|>": 566,
      "<|reserved_51|>": 567,
      "<|reserved_52|>": 568,
      "<|reserved_53|>": 569,
      "<|reserved_54|>": 570,
      "<|reserved_55|>": 571,
      "<|reserved_56|>": 572,
      "<|reserved_57|>": 573,
      "<|reserved_58|>": 574,
      "<|reserved_59|>": 575,
      "<|reserved_60|>": 576,
      "<|reserved_61|>": 577,
      "<|reserved_62|>": 578,
      "<|reserved_63|>": 579,
      "<|reserved_64|>": 580,
      "<|reserved_65|>": 581,
      "<|reserved_66|>": 582,
      "<|reserved_67|>": 583,
      "<|reserved_68|>": 584,
      "<|reserved_69|>": 585,
      "<|reserved_70|>": 586,
      "<|reserved_71|>": 587,
      "<|reserved_72|>": 588,
      "<|reserved_73|>": 589,
      "<|reserved_74|>": 590,
      "<|reserved_75|>": 591,
      "<|reserved_76|>": 592,
      "<|reserved_77|>": 593,
      "<|reserved_78|>": 594,
      "<|reserved_79|>": 595,
      "<|reserved_80|>": 596,
      "<|reserved_81|>": 597,
      "<|reserved_82|>": 598,
      "<|reserved_83|>": 599,
      "<|reserved_84|>": 600,
      "<|reserved_85|>": 601,
      "<|reserved_86|>": 602,
      "<|reserved_87|>": 603,
      "<|reserved_88|>": 604,
      "<|reserved_89|>": 605,
      "<|reserved_90|>": 606,
      "<|reserved_91|>": 607,
      "<|reserved_92|>": 608,
      "<|reserved_93|>": 609,
      "<|reserved_94|>": 610,
      "<|reserved_95|>": 611,
      "<|reserved_96|>": 612,
      "<|reserved_97|>": 613,
      "<|reserved_98|>": 614,
      "<|reserved_99|>": 615,
      "<|reserved_100|>": 616,
      "<|reserved_101|>": 617,
      "<|reserved_102|>": 618,
      "<|reserved_103|>": 619,
      "<|reserved_104|>": 620,
      "<|reserved_105|>": 621,
      "<|reserved_106|>": 622,
      "<|reserved_107|>": 623,
      "<|reserved_108|>": 624,
      "<|reserved_109|>": 625,
      "<|reserved_110|>": 626,
      "<|reserved_111|>": 627,
      "<|reserved_112|>": 628,
      "<|reserved_113|>": 629,
      "<|reserved_114|>": 630,
      "<|reserved_115|>": 631,
      "<|reserved_116|>": 632,
      "<|reserved_117|>": 633,
      "<|reserved_118|>": 634,
      "<|reserved_119|>": 635,
      "<|reserved_120|>": 636,
      "<|reserved_121|>": 637,
      "<|reserved_122|>": 638,
      "<|reserved_123|>": 639,
      "<|reserved_124|>": 640,
      "<|reserved_125|>": 641,
      "<|reserved_126|>": 642,
      "<|reserved_127|>": 643,
      "<|reserved_128|>": 644,
      "<|reserved_129|>": 645,
      "<|reserved_130|>": 646,
      "<|reserved_131|>": 647,
      "<|reserved_132|>": 648,
      "<|reserved_133|>": 649,
      "<|reserved_134|>": 650,
      "<|reserved_135|>": 651,
      "<|reserved_136|>": 652,
      "<|reserved_137|>": 653,
      "<|reserved_138|>": 654,
      "<|reserved_139|>": 655,
      "<|reserved_140|>": 656,
      "<|reserved_141|>": 657,
      "<|reserved_142|>": 658,
      "<|reserved_143|>": 659,
      "<|reserved_144|>": 660,
      "<|reserved_145|>": 661,
      "<|reserved_146|>": 662,
      "<|reserved_147|>": 663,
      "<|reserved_148|>": 664,
      "<|reserved_149|>": 665,
      "<|reserved_150|>": 666,
      "<|reserved_151|>": 667,
      "<|reserved_152|>": 668,
      "<|reserved_153|>": 669,
      "<|reserved_154|>": 670,
      "<|reserved_155|>": 671,
      "<|reserved_156|>": 672,
      "<|reserved_157|>": 673,
      "<|reserved_158|>": 674,
      "<|reserved_159|>": 675,
      "<|reserved_160|>": 676,
      "<|reserved_161|>": 677,
      "<|reserved_162|>": 678,
      "<|reserved_163|>": 679,
      "<|reserved_164|>": 680,
      "<|reserved_165|>": 681,
      "<|reserved_166|>": 682,
      "<|reserved_167|>": 683,
      "<|reserved_168|>": 684,
      "<|reserved_169|>": 685,
      "<|reserved_170|>": 686,
      "<|reserved_171|>": 687,
      "<|reserved_172|>": 688,
      "<|reserved_173|>": 689,
      "<|reserved_174|>": 690,
      "<|reserved_175|>": 691,
      "<|reserved_176|>": 692,
      "<|reserved_177|>": 693,
      "<|reserved_178|>": 694,
      "<|reserved_179|>": 695,
      "<|reserved_180|>": 696,
      "<|reserved_181|>": 697,
      "<|reserved_182|>": 698,
      "<|reserved_183|>": 699,
      "<|reserved_184|>": 700,
      "<|reserved_185|>": 701,
      "<|reserved_186|>": 702,
      "<|reserved_187|>": 703,
      "<|reserved_188|>": 704,
      "<|reserved_189|>": 705,
      "<|reserved_190|>": 706,
      "<|reserved_191|>": 707,
      "<|reserved_192|>": 708,
      "<|reserved_193|>": 709,
      "<|reserved_194|>": 710,
      "<|reserved_195|>": 711,
      "<|reserved_196|>": 712,
      "<|reserved_197|>": 713,
      "<|reserved_198|>": 714,
      "<|reserved_199|>": 715,
      "<|reserved_200|>": 716,
      "<|reserved_201|>": 717,
      "<|reserved_202|>": 718,
      "<|reserved_203|>": 719,
      "<|reserved_204|>": 720,
      "<|reserved_205|>": 721,
      "<|reserved_206|>": 722,
      "<|reserved_207|>": 723,
      "<|reserved_208|>": 724,
      "<|reserved_209|>": 725,
      "<|reserved_210|>": 726,
      "<|reserved_211|>": 727,
      "<|reserved_212|>": 728,
      "<|reserved_213|>": 729,
      "<|reserved_214|>": 730,
      "<|reserved_215|>": 731,
      "<|reserved_216|>": 732,
      "<|reserved_217|>": 733,
      "<|reserved_218|>": 734,
      "<|reserved_219|>": 735,
      "<|reserved_220|>": 736,
      "<|reserved_221|>": 737,
      "<|reserved_222|>": 738,
      "<|reserved_223|>": 739,
      "<|reserved_224|>": 740,
      "<|reserved_225|>": 741,
      "<|reserved_226|>": 742,
      "<|reserved_227|>": 743,
      "<|reserved_228|>": 744,
      "<|reserved_229|>": 745,
      "<|reserved_230|>": 746,
      "<|reserved_231|>": 747,
      "<|reserved_232|>": 748,
      "<|reserved_233|>": 749,
      "<|reserved_234|>": 750,
      "<|reserved_235|>": 751,
      "<|reserved_236|>": 752,
      "<|reserved_237|>": 753,
      "<|reserved_238|>": 754,
      "<|reserved_239|>": 755,
      "<|reserved_240|>": 756,
      "<|reserved_241|>": 757,
      "<|reserved_242|>": 758,
      "<|reserved_243|>": 759,
      "<|reserved_244|>": 760,
      "<|reserved_245|>": 761,
      "<|reserved_246|>": 762,
      "<|reserved_247|>": 763,
      "<|reserved_248|>": 764,
      "<|reserved_249|>": 765,
      "<|reserved_250|>": 766,
      "<|reserved_251|>": 767,
      "<|reserved_252|>": 768,
      "<|reserved_253|>": 769,
      "<|reserved_254|>": 770,
      "<|reserved_255|>": 771,
      "<|reserved_256|>": 772,
      "<|reserved_257|>": 773,
      "<|reserved_258|>": 774,
      "<|reserved_259|>": 775,
      "<|reserved_260|>": 776,
      "<|reserved_261|>": 777,
      "<|reserved_262|>": 778,
      "<|reserved_263|>": 779,
      "<|reserved_264|>": 780,
      "<|reserved_265|>": 781,
      "<|reserved_266|>": 782,
      "<|reserved_267|>": 783,
      "<|reserved_268|>": 784,
      "<|reserved_269|>": 785,
      "<|reserved_270|>": 786,
      "<|reserved_271|>": 787,
      "<|reserved_272|>": 788,
      "<|reserved_273|>": 789,
      "<|reserved_274|>": 790,
      "<|reserved_275|>": 791,
      "<|reserved_276|>": 792,
      "<|reserved_277|>": 793,
      "<|reserved_278|>": 794,
      "<|reserved_279|>": 795,
      "<|reserved_280|>": 796,
      "<|reserved_281|>": 797,
      "<|reserved_282|>": 798,
      "<|reserved_283|>": 799,
      "<|reserved_284|>": 800,
      "<|reserved_285|>": 801,
      "<|reserved_286|>": 802,
      "<|reserved_287|>": 803,
      "<|reserved_288|>": 804,
      "<|reserved_289|>": 805,
      "<|reserved_290|>": 806,
      "<|reserved_291|>": 807,
      "<|reserved_292|>": 808,
      "<|reserved_293|>": 809,
      "<|reserved_294|>": 810,
      "<|reserved_295|>": 811,
      "<|reserved_296|>": 812,
      "<|reserved_297|>": 813,
      "<|reserved_298|>": 814,
      "<|reserved_299|>": 815,
      "<|reserved_300|>": 816,
      "<|reserved_301|>": 817,
      "<|reserved_302|>": 818,
      "<|reserved_303|>": 819,
      "<|reserved_304|>": 820,
      "<|reserved_305|>": 821,
      "<|reserved_306|>": 822,
      "<|reserved_307|>": 823,
      "<|reserved_308|>": 824,
      "<|reserved_309|>": 825,
      "<|reserved_310|>": 826,
      "<|reserved_311|>": 827,
      "<|reserved_312|>": 828,
      "<|reserved_313|>": 829,
      "<|reserved_314|>": 830,
      "<|reserved_315|>": 831,
      "<|reserved_316|>": 832,
      "<|reserved_317|>": 833,
      "<|reserved_318|>": 834,
      "<|reserved_319|>": 835,
      "<|reserved_320|>": 836,
      "<|reserved_321|>": 837,
      "<|reserved_322|>": 838,
      "<|reserved_323|>": 839,
      "<|reserved_324|>": 840,
      "<|reserved_325|>": 841,
      "<|reserved_326|>": 842,
      "<|reserved_327|>": 843,
      "<|reserved_328|>": 844,
      "<|reserved_329|>": 845,
      "<|reserved_330|>": 846,
      "<|reserved_331|>": 847,
      "<|reserved_332|>": 848,
      "<|reserved_333|>": 849,
      "<|reserved_334|>": 850,
      "<|reserved_335|>": 851,
      "<|reserved_336|>": 852,
      "<|reserved_337|>": 853,
      "<|reserved_338|>": 854,
      "<|reserved_339|>": 855,
      "<|reserved_340|>": 856,
      "<|reserved_341|>": 857,
      "<|reserved_342|>": 858,
      "<|reserved_343|>": 859,
      "<|reserved_344|>": 860,
      "<|reserved_345|>": 861,
      "<|reserved_346|>": 862,
      "<|reserved_347|>": 863,
      "<|reserved_348|>": 864,
      "<|reserved_349|>": 865,
      "<|reserved_350|>": 866,
      "<|reserved_351|>": 867,
      "<|reserved_352|>": 868,
      "<|reserved_353|>": 869,
      "<|reserved_354|>": 870,
      "<|reserved_355|>": 871,
      "<|reserved_356|>": 872,
      "<|reserved_357|>": 873,
      "<|reserved_358|>": 874,
      "<|reserved_359|>": 875,
      "<|reserved_360|>": 876,
      "<|reserved_361|>": 877,
      "<|reserved_362|>": 878,
      "<|reserved_363|>": 879,
      "<|reserved_364|>": 880,
      "<|reserved_365|>": 881,
      "<|reserved_366|>": 882,
      "<|reserved_367|>": 883,
      "<|reserved_368|>": 884,
      "<|reserved_369|>": 885,
      "<|reserved_370|>": 886,
      "<|reserved_371|>": 887,
      "<|reserved_372|>": 888,
      "<|reserved_373|>": 889,
      "<|reserved_374|>": 890,
      "<|reserved_375|>": 891,
      "<|reserved_376|>": 892,
      "<|reserved_377|>": 893,
      "<|reserved_378|>": 894,
      "<|reserved_379|>": 895,
      "<|reserved_380|>": 896,
      "<|reserved_381|>": 897,
      "<|reserved_382|>": 898,
      "<|reserved_383|>": 899,
      "<|reserved_384|>": 900,
      "<|reserved_385|>": 901,
      "<|reserved_386|>": 902,
      "<|reserved_387|>": 903,
      "<|reserved_388|>": 904,
      "<|reserved_389|>": 905,
      "<|reserved_390|>": 906,
      "<|reserved_391|>": 907,
      "<|reserved_392|>": 908,
      "<|reserved_393|>": 909,
      "<|reserved_394|>": 910,
      "<|reserved_395|>": 911,
      "<|reserved_396|>": 912,
      "<|reserved_397|>": 913,
      "<|reserved_398|>": 914,
      "<|reserved_399|>": 915,
      "<|reserved_400|>": 916,
      "<|reserved_401|>": 917,
      "<|reserved_402|>": 918,
      "<|reserved_403|>": 919,
      "<|reserved_404|>": 920,
      "<|reserved_405|>": 921,
      "<|reserved_406|>": 922,
      "<|reserved_407|>": 923,
      "<|reserved_408|>": 924,
      "<|reserved_409|>": 925,
      "<|reserved_410|>": 926,
      "<|reserved_411|>": 927,
      "<|reserved_412|>": 928,
      "<|reserved_413|>": 929,
      "<|reserved_414|>": 930,
      "<|reserved_415|>": 931,
      "<|reserved_416|>": 932,
      "<|reserved_417|>": 933,
      "<|reserved_418|>": 934,
      "<|reserved_419|>": 935,
      "<|reserved_420|>": 936,
      "<|reserved_421|>": 937,
      "<|reserved_422|>": 938,
      "<|reserved_423|>": 939,
      "<|reserved_424|>": 940,
      "<|reserved_425|>": 941,
      "<|reserved_426|>": 942,
      "<|reserved_427|>": 943,
      "<|reserved_428|>": 944,
      "<|reserved_429|>": 945,
      "<|reserved_430|>": 946,
      "<|reserved_431|>": 947,
      "<|reserved_432|>": 948,
      "<|reserved_433|>": 949,
      "<|reserved_434|>": 950,
      "<|reserved_435|>": 951,
      "<|reserved_436|>": 952,
      "<|reserved_437|>": 953,
      "<|reserved_438|>": 954,
      "<|reserved_439|>": 955,
      "<|reserved_440|>": 956,
      "<|reserved_441|>": 957,
      "<|reserved_442|>": 958,
      "<|reserved_443|>": 959,
      "<|reserved_444|>": 960,
      "<|reserved_445|>": 961,
      "<|reserved_446|>": 962,
      "<|reserved_447|>": 963,
      "<|reserved_448|>": 964,
      "<|reserved_449|>": 965,
      "<|reserved_450|>": 966,
      "<|reserved_451|>": 967,
      "<|reserved_452|>": 968,
      "<|reserved_453|>": 969,
      "<|reserved_454|>": 970,
      "<|reserved_455|>": 971,
      "<|reserved_456|>": 972,
      "<|reserved_457|>": 973,
      "<|reserved_458|>": 974,
      "<|reserved_459|>": 975,
      "<|reserved_460|>": 976,
      "<|reserved_461|>": 977,
      "<|reserved_462|>": 978,
      "<|reserved_463|>": 979,
      "<|reserved_464|>": 980,
      "<|reserved_465|>": 981,
      "<|reserved_466|>": 982,
      "<|reserved_467|>": 983,
      "<|reserved_468|>": 984,
      "<|reserved_469|>": 985,
      "<|reserved_470|>": 986,
      "<|reserved_471|>": 987,
      "<|reserved_472|>": 988,
      "<|reserved_473|>": 989,
      "<|reserved_474|>": 990,
      "<|reserved_475|>": 991,
      "<|reserved_476|>": 992,
      "<|reserved_477|>": 993,
      "<|reserved_478|>": 994,
      "<|reserved_479|>": 995,
      "<|reserved_480|>": 996,
      "<|reserved_481|>": 997,
      "<|reserved_482|>": 998,
      "<|reserved_483|>": 999,
      "<|reserved_484|>": 1000,
      "<|reserved_485|>": 1001,
      "<|reserved_486|>": 1002,
      "<|reserved_487|>": 1003,
      "<|reserved_488|>": 1004,
      "<|reserved_489|>": 1005,
      "<|reserved_490|>": 1006,
      "<|reserved_491|>": 1007,
      "<|reserved_492|>": 1008,
      "<|reserved_493|>": 1009,
      "<|reserved_494|>": 1010,
      "<|reserved_495|>": 1011,
      "<|reserved_496|>": 1012,
      "<|reserved_497|>": 1013,
      "<|reserved_498|>": 1014,
      "<|reserved_499|>": 1015,
      "<|reserved_500|>": 1016,
      "<|reserved_501|>": 1017,
      "<|reserved_502|>": 1018,
      "<|reserved_503|>": 1019,
      "<|reserved_504|>": 1020,
      "<|reserved_505|>": 1021,
      "<|reserved_506|>": 1022,
      "<|reserved_507|>": 1023,
      "<|reserved_508|>": 1024,
      "<|reserved_509|>": 1025,
      "<|reserved_510|>": 1026,
      "<|reserved_511|>": 1027,
      "<|reserved_512|>": 1028,
      "<|reserved_513|>": 1029,
      "<|reserved_514|>": 1030,
      "<|reserved_515|>": 1031,
      "<|reserved_516|>": 1032,
      "<|reserved_517|>": 1033,
      "<|reserved_518|>": 1034,
      "<|reserved_519|>": 1035,
      "<|reserved_520|>": 1036,
      "<|reserved_521|>": 1037,
      "<|reserved_522|>": 1038,
      "<|reserved_523|>": 1039,
      "<|reserved_524|>": 1040,
      "<|reserved_525|>": 1041,
      "<|reserved_526|>": 1042,
      "<|reserved_527|>": 1043,
      "<|reserved_528|>": 1044,
      "<|reserved_529|>": 1045,
      "<|reserved_530|>": 1046,
      "<|reserved_531|>": 1047,
      "<|reserved_532|>": 1048,
      "<|reserved_533|>": 1049,
      "<|reserved_534|>": 1050,
      "<|reserved_535|>": 1051,
      "<|reserved_536|>": 1052,
      "<|reserved_537|>": 1053,
      "<|reserved_538|>": 1054,
      "<|reserved_539|>": 1055,
      "<|reserved_540|>": 1056,
      "<|reserved_541|>": 1057,
      "<|reserved_542|>": 1058,
      "<|reserved_543|>": 1059,
      "<|reserved_544|>": 1060,
      "<|reserved_545|>": 1061,
      "<|reserved_546|>": 1062,
      "<|reserved_547|>": 1063,
      "<|reserved_548|>": 1064,
      "<|reserved_549|>": 1065,
      "<|reserved_550|>": 1066,
      "<|reserved_551|>": 1067,
      "<|reserved_552|>": 1068,
      "<|reserved_553|>": 1069,
      "<|reserved_554|>": 1070,
      "<|reserved_555|>": 1071,
      "<|reserved_556|>": 1072,
      "<|reserved_557|>": 1073,
      "<|reserved_558|>": 1074,
      "<|reserved_559|>": 1075,
      "<|reserved_560|>": 1076,
      "<|reserved_561|>": 1077,
      "<|reserved_562|>": 1078,
      "<|reserved_563|>": 1079,
      "<|reserved_564|>": 1080,
      "<|reserved_565|>": 1081,
      "<|reserved_566|>": 1082,
      "<|reserved_567|>": 1083,
      "<|reserved_568|>": 1084,
      "<|reserved_569|>": 1085,
      "<|reserved_570|>": 1086,
      "<|reserved_571|>": 1087,
      "<|reserved_572|>": 1088,
      "<|reserved_573|>": 1089,
      "<|reserved_574|>": 1090,
      "<|reserved_575|>": 1091,
      "<|reserved_576|>": 1092,
      "<|reserved_577|>": 1093,
      "<|reserved_578|>": 1094,
      "<|reserved_579|>": 1095,
      "<|reserved_580|>": 1096,
      "<|reserved_581|>": 1097,
      "<|reserved_582|>": 1098,
      "<|reserved_583|>": 1099,
      "<|reserved_584|>": 1100,
      "<|reserved_585|>": 1101,
      "<|reserved_586|>": 1102,
      "<|reserved_587|>": 1103,
      "<|reserved_588|>": 1104,
      "<|reserved_589|>": 1105,
      "<|reserved_590|>": 1106,
      "<|reserved_591|>": 1107,
      "<|reserved_592|>": 1108,
      "<|reserved_593|>": 1109,
      "<|reserved_594|>": 1110,
      "<|reserved_595|>": 1111,
      "<|reserved_596|>": 1112,
      "<|reserved_597|>": 1113,
      "<|reserved_598|>": 1114,
      "<|reserved_599|>": 1115,
      "<|reserved_600|>": 1116,
      "<|reserved_601|>": 1117,
      "<|reserved_602|>": 1118,
      "<|reserved_603|>": 1119,
      "<|reserved_604|>": 1120,
      "<|reserved_605|>": 1121,
      "<|reserved_606|>": 1122,
      "<|reserved_607|>": 1123,
      "<|reserved_608|>": 1124,
      "<|reserved_609|>": 1125,
      "<|reserved_610|>": 1126,
      "<|reserved_611|>": 1127,
      "<|reserved_612|>": 1128,
      "<|reserved_613|>": 1129,
      "<|reserved_614|>": 1130,
      "<|reserved_615|>": 1131,
      "<|reserved_616|>": 1132,
      "<|reserved_617|>": 1133,
      "<|reserved_618|>": 1134,
      "<|reserved_619|>": 1135,
      "<|reserved_620|>": 1136,
      "<|reserved_621|>": 1137,
      "<|reserved_622|>": 1138,
      "<|reserved_623|>": 1139,
      "<|reserved_624|>": 1140,
      "<|reserved_625|>": 1141,
      "<|reserved_626|>": 1142,
      "<|reserved_627|>": 1143,
      "<|reserved_628|>": 1144,
      "<|reserved_629|>": 1145,
      "<|reserved_630|>": 1146,
      "<|reserved_631|>": 1147,
      "<|reserved_632|>": 1148,
      "<|reserved_633|>": 1149,
      "<|reserved_634|>": 1150,
      "<|reserved_635|>": 1151,
      "<|reserved_636|>": 1152,
      "<|reserved_637|>": 1153,
      "<|reserved_638|>": 1154,
      "<|reserved_639|>": 1155,
      "<|reserved_640|>": 1156,
      "<|reserved_641|>": 1157,
      "<|reserved_642|>": 1158,
      "<|reserved_643|>": 1159,
      "<|reserved_644|>": 1160,
      "<|reserved_645|>": 1161,
      "<|reserved_646|>": 1162,
      "<|reserved_647|>": 1163,
      "<|reserved_648|>": 1164,
      "<|reserved_649|>": 1165,
      "<|reserved_650|>": 1166,
      "<|reserved_651|>": 1167,
      "<|reserved_652|>": 1168,
      "<|reserved_653|>": 1169,
      "<|reserved_654|>": 1170,
      "<|reserved_655|>": 1171,
      "<|reserved_656|>": 1172,
      "<|reserved_657|>": 1173,
      "<|reserved_658|>": 1174,
      "<|reserved_659|>": 1175,
      "<|reserved_660|>": 1176,
      "<|reserved_661|>": 1177,
      "<|reserved_662|>": 1178,
      "<|reserved_663|>": 1179,
      "<|reserved_664|>": 1180,
      "<|reserved_665|>": 1181,
      "<|reserved_666|>": 1182,
      "<|reserved_667|>": 1183,
      "<|reserved_668|>": 1184,
      "<|reserved_669|>": 1185,
      "<|reserved_670|>": 1186,
      "<|reserved_671|>": 1187,
      "<|reserved_672|>": 1188,
      "<|reserved_673|>": 1189,
      "<|reserved_674|>": 1190,
      "<|reserved_675|>": 1191,
      "<|reserved_676|>": 1192,
      "<|reserved_677|>": 1193,
      "<|reserved_678|>": 1194,
      "<|reserved_679|>": 1195,
      "<|reserved_680|>": 1196,
      "<|reserved_681|>": 1197,
      "<|reserved_682|>": 1198,
      "<|reserved_683|>": 1199,
      "<|reserved_684|>": 1200,
      "<|reserved_685|>": 1201,
      "<|reserved_686|>": 1202,
      "<|reserved_687|>": 1203,
      "<|reserved_688|>": 1204,
      "<|reserved_689|>": 1205,
      "<|reserved_690|>": 1206,
      "<|reserved_691|>": 1207,
      "<|reserved_692|>": 1208,
      "<|reserved_693|>": 1209,
      "<|reserved_694|>": 1210,
      "<|reserved_695|>": 1211,
      "<|reserved_696|>": 1212,
      "<|reserved_697|>": 1213,
      "<|reserved_698|>": 1214,
      "<|reserved_699|>": 1215,
      "<|reserved_700|>": 1216,
      "<|reserved_701|>": 1217,
      "<|reserved_702|>": 1218,
      "<|reserved_703|>": 1219,
      "<|reserved_704|>": 1220,
      "<|reserved_705|>": 1221,
      "<|reserved_706|>": 1222,
      "<|reserved_707|>": 1223,
      "<|reserved_708|>": 1224,
      "<|reserved_709|>": 1225,
      "<|reserved_710|>": 1226,
      "<|reserved_711|>": 1227,
      "<|reserved_712|>": 1228,
      "<|reserved_713|>": 1229,
      "<|reserved_714|>": 1230,
      "<|reserved_715|>": 1231,
      "<|reserved_716|>": 1232,
      "<|reserved_717|>": 1233,
      "<|reserved_718|>": 1234,
      "<|reserved_719|>": 1235,
      "<|reserved_720|>": 1236,
      "<|reserved_721|>": 1237,
      "<|reserved_722|>": 1238,
      "<|reserved_723|>": 1239,
      "<|reserved_724|>": 1240,
      "<|reserved_725|>": 1241,
      "<|reserved_726|>": 1242,
      "<|reserved_727|>": 1243,
      "<|reserved_728|>": 1244,
      "<|reserved_729|>": 1245,
      "<|reserved_730|>": 1246,
      "<|reserved_731|>": 1247,
      "<|reserved_732|>": 1248,
      "<|reserved_733|>": 1249,
      "<|reserved_734|>": 1250,
      "<|reserved_735|>": 1251,
      "<|reserved_736|>": 1252,
      "<|reserved_737|>": 1253,
      "<|reserved_738|>": 1254,
      "<|reserved_739|>": 1255,
      "<|reserved_740|>": 1256,
      "<|reserved_741|>": 1257,
      "<|reserved_742|>": 1258,
      "<|reserved_743|>": 1259,
      "<|reserved_744|>": 1260,
      "<|reserved_745|>": 1261,
      "<|reserved_746|>": 1262,
      "<|reserved_747|>": 1263,
      "<|reserved_748|>": 1264,
      "<|reserved_749|>": 1265,
      "<|reserved_750|>": 1266,
      "<|reserved_751|>": 1267,
      "<|reserved_752|>": 1268,
      "<|reserved_753|>": 1269,
      "<|reserved_754|>": 1270,
      "<|reserved_755|>": 1271,
      "<|reserved_756|>": 1272,
      "<|reserved_757|>": 1273,
      "<|reserved_758|>": 1274,
      "<|reserved_759|>": 1275,
      "<|reserved_760|>": 1276,
      "<|reserved_761|>": 1277,
      "<|reserved_762|>": 1278,
      "<|reserved_763|>": 1279,
      "<|reserved_764|>": 1280,
      "<|reserved_765|>": 1281,
      "<|reserved_766|>": 1282,
      "<|reserved_767|>": 1283,
      "<|reserved_768|>": 1284,
      "<|reserved_769|>": 1285,
      "<|reserved_770|>": 1286,
      "<|reserved_771|>": 1287,
      "<|reserved_772|>": 1288,
      "<|reserved_773|>": 1289,
      "<|reserved_774|>": 1290,
      "<|reserved_775|>": 1291,
      "<|reserved_776|>": 1292,
      "<|reserved_777|>": 1293,
      "<|reserved_778|>": 1294,
      "<|reserved_779|>": 1295,
      "<|reserved_780|>": 1296,
      "<|reserved_781|>": 1297,
      "<|reserved_782|>": 1298,
      "<|reserved_783|>": 1299,
      "<|reserved_784|>": 1300,
      "<|reserved_785|>": 1301,
      "<|reserved_786|>": 1302,
      "<|reserved_787|>": 1303,
      "<|reserved_788|>": 1304,
      "<|reserved_789|>": 1305,
      "<|reserved_790|>": 1306,
      "<|reserved_791|>": 1307,
      "<|reserved_792|>": 1308,
      "<|reserved_793|>": 1309,
      "<|reserved_794|>": 1310,
      "<|reserved_795|>": 1311,
      "<|reserved_796|>": 1312,
      "<|reserved_797|>": 1313,
      "<|reserved_798|>": 1314,
      "<|reserved_799|>": 1315,
      "<|reserved_800|>": 1316,
      "<|reserved_801|>": 1317,
      "<|reserved_802|>": 1318,
      "<|reserved_803|>": 1319,
      "<|reserved_804|>": 1320,
      "<|reserved_805|>": 1321,
      "<|reserved_806|>": 1322,
      "<|reserved_807|>": 1323,
      "<|reserved_808|>": 1324,
      "<|reserved_809|>": 1325,
      "<|reserved_810|>": 1326,
      "<|reserved_811|>": 1327,
      "<|reserved_812|>": 1328,
      "<|reserved_813|>": 1329,
      "<|reserved_814|>": 1330,
      "<|reserved_815|>": 1331,
      "<|reserved_816|>": 1332,
      "<|reserved_817|>": 1333,
      "<|reserved_818|>": 1334,
      "<|reserved_819|>": 1335,
      "<|reserved_820|>": 1336,
      "<|reserved_821|>": 1337,
      "<|reserved_822|>": 1338,
      "<|reserved_823|>": 1339,
      "<|reserved_824|>": 1340,
      "<|reserved_825|>": 1341,
      "<|reserved_826|>": 1342,
      "<|reserved_827|>": 1343,
      "<|reserved_828|>": 1344,
      "<|reserved_829|>": 1345,
      "<|reserved_830|>": 1346,
      "<|reserved_831|>": 1347,
      "<|reserved_832|>": 1348,
      "<|reserved_833|>": 1349,
      "<|reserved_834|>": 1350,
      "<|reserved_835|>": 1351,
      "<|reserved_836|>": 1352,
      "<|reserved_837|>": 1353,
      "<|reserved_838|>": 1354,
      "<|reserved_839|>": 1355,
      "<|reserved_840|>": 1356,
      "<|reserved_841|>": 1357,
      "<|reserved_842|>": 1358,
      "<|reserved_843|>": 1359,
      "<|reserved_844|>": 1360,
      "<|reserved_845|>": 1361,
      "<|reserved_846|>": 1362,
      "<|reserved_847|>": 1363,
      "<|reserved_848|>": 1364,
      "<|reserved_849|>": 1365,
      "<|reserved_850|>": 1366,
      "<|reserved_851|>": 1367,
      "<|reserved_852|>": 1368,
      "<|reserved_853|>": 1369,
      "<|reserved_854|>": 1370,
      "<|reserved_855|>": 1371,
      "<|reserved_856|>": 1372,
      "<|reserved_857|>": 1373,
      "<|reserved_858|>": 1374,
      "<|reserved_859|>": 1375,
      "<|reserved_860|>": 1376,
      "<|reserved_861|>": 1377,
      "<|reserved_862|>": 1378,
      "<|reserved_863|>": 1379,
      "<|reserved_864|>": 1380,
      "<|reserved_865|>": 1381,
      "<|reserved_866|>": 1382,
      "<|reserved_867|>": 1383,
      "<|reserved_868|>": 1384,
      "<|reserved_869|>": 1385,
      "<|reserved_870|>": 1386,
      "<|reserved_871|>": 1387,
      "<|reserved_872|>": 1388,
      "<|reserved_873|>": 1389,
      "<|reserved_874|>": 1390,
      "<|reserved_875|>": 1391,
      "<|reserved_876|>": 1392,
      "<|reserved_877|>": 1393,
      "<|reserved_878|>": 1394,
      "<|reserved_879|>": 1395,
      "<|reserved_880|>": 1396,
      "<|reserved_881|>": 1397,
      "<|reserved_882|>": 1398,
      "<|reserved_883|>": 1399,
      "<|reserved_884|>": 1400,
      "<|reserved_885|>": 1401,
      "<|reserved_886|>": 1402,
      "<|reserved_887|>": 1403,
      "<|reserved_888|>": 1404,
      "<|reserved_889|>": 1405,
      "<|reserved_890|>": 1406,
      "<|reserved_891|>": 1407,
      "<|reserved_892|>": 1408,
      "<|reserved_893|>": 1409,
      "<|reserved_894|>": 1410,
      "<|reserved_895|>": 1411,
      "<|reserved_896|>": 1412,
      "<|reserved_897|>": 1413,
      "<|reserved_898|>": 1414,
      "<|reserved_899|>": 1415,
      "<|reserved_900|>": 1416,
      "<|reserved_901|>": 1417,
      "<|reserved_902|>": 1418,
      "<|reserved_903|>": 1419,
      "<|reserved_904|>": 1420,
      "<|reserved_905|>": 1421,
      "<|reserved_906|>": 1422,
      "<|reserved_907|>": 1423,
      "<|reserved_908|>": 1424,
      "<|reserved_909|>": 1425,
      "<|reserved_910|>": 1426,
      "<|reserved_911|>": 1427,
      "<|reserved_912|>": 1428,
      "<|reserved_913|>": 1429,
      "<|reserved_914|>": 1430,
      "<|reserved_915|>": 1431,
      "<|reserved_916|>": 1432,
      "<|reserved_917|>": 1433,
      "<|reserved_918|>": 1434,
      "<|reserved_919|>": 1435,
      "<|reserved_920|>": 1436,
      "<|reserved_921|>": 1437,
      "<|reserved_922|>": 1438,
      "<|reserved_923|>": 1439,
      "<|reserved_924|>": 1440,
      "<|reserved_925|>": 1441,
      "<|reserved_926|>": 1442,
      "<|reserved_927|>": 1443,
      "<|reserved_928|>": 1444,
      "<|reserved_929|>": 1445,
      "<|reserved_930|>": 1446,
      "<|reserved_931|>": 1447,
      "<|reserved_932|>": 1448,
      "<|reserved_933|>": 1449,
      "<|reserved_934|>": 1450,
      "<|reserved_935|>": 1451,
      "<|reserved_936|>": 1452,
      "<|reserved_937|>": 1453,
      "<|reserved_938|>": 1454,
      "<|reserved_939|>": 1455,
      "<|reserved_940|>": 1456,
      "<|reserved_941|>": 1457,
      "<|reserved_942|>": 1458,
      "<|reserved_943|>": 1459,
      "<|reserved_944|>": 1460,
      "<|reserved_945|>": 1461,
      "<|reserved_946|>": 1462,
      "<|reserved_947|>": 1463,
      "<|reserved_948|>": 1464,
      "<|reserved_949|>": 1465,
      "<|reserved_950|>": 1466,
      "<|reserved_951|>": 1467,
      "<|reserved_952|>": 1468,
      "<|reserved_953|>": 1469,
      "<|reserved_954|>": 1470,
      "<|reserved_955|>": 1471,
      "<|reserved_956|>": 1472,
      "<|reserved_957|>": 1473,
      "<|reserved_958|>": 1474,
      "<|reserved_959|>": 1475,
      "<|reserved_960|>": 1476,
      "<|reserved_961|>": 1477,
      "<|reserved_962|>": 1478,
      "<|reserved_963|>": 1479,
      "<|reserved_964|>": 1480,
      "<|reserved_965|>": 1481,
      "<|reserved_966|>": 1482,
      "<|reserved_967|>": 1483,
      "<|reserved_968|>": 1484,
      "<|reserved_969|>": 1485,
      "<|reserved_970|>": 1486,
      "<|reserved_971|>": 1487,
      "<|reserved_972|>": 1488,
      "<|reserved_973|>": 1489,
      "<|reserved_974|>": 1490,
      "<|reserved_975|>": 1491,
      "<|reserved_976|>": 1492,
      "<|reserved_977|>": 1493,
      "<|reserved_978|>": 1494,
      "<|reserved_979|>": 1495,
      "<|reserved_980|>": 1496,
      "<|reserved_981|>": 1497,
      "<|reserved_982|>": 1498,
      "<|reserved_983|>": 1499,
      "<|reserved_984|>": 1500,
      "<|reserved_985|>": 1501,
      "<|reserved_986|>": 1502,
      "<|reserved_987|>": 1503,
      "<|reserved_988|>": 1504,
      "<|reserved_989|>": 1505,
      "<|reserved_990|>": 1506,
      "<|reserved_991|>": 1507,
      "<|reserved_992|>": 1508,
      "<|reserved_993|>": 1509,
      "<|reserved_994|>": 1510,
      "<|reserved_995|>": 1511,
      "<|reserved_996|>": 1512,
      "<|reserved_997|>": 1513,
      "<|reserved_998|>": 1514,
      "<|reserved_999|>": 1515,
      "<|reserved_1000|>": 1516,
      "<|reserved_1001|>": 1517,
      "<|reserved_1002|>": 1518,
      "<|reserved_1003|>": 1519,
      "<|reserved_1004|>": 1520,
      "<|reserved_1005|>": 1521,
      "<|reserved_1006|>": 1522,
      "<|reserved_1007|>": 1523,
      "<|reserved_1008|>": 1524,
      "<|reserved_1009|>": 1525,
      "<|reserved_1010|>": 1526,
      "<|reserved_1011|>": 1527,
      "<|reserved_1012|>": 1528,
      "<|reserved_1013|>": 1529,
      "<|reserved_1014|>": 1530,
      "<|reserved_1015|>": 1531,
      "<|reserved_1016|>": 1532,
      "<|reserved_1017|>": 1533,
      "<|reserved_1018|>": 1534,
      "<|reserved_1019|>": 1535,
      "<|reserved_1020|>": 1536,
      "<|reserved_1021|>": 1537,
      "<|reserved_1022|>": 1538,
      "<|reserved_1023|>": 1539,
      "<|PRE|>": 1540,
      "<|MID|>": 1541,
      "<|SUF|>": 1542,
      ",": 1543,
      "<0x00>": 1544,
      "<0x01>": 1545,
      "<0x02>": 1546,
      "<0x03>": 1547,
      "<0x04>": 1548,
      "<0x05>": 1549,
      "<0x06>": 1550,
      "<0x07>": 1551,
      "<0x08>": 1552,
      "<0x09>": 1553,
      "<0x0A>": 1554,
      "<0x0B>": 1555,
      "<0x0C>": 1556,
      "<0x0D>": 1557,
      "<0x0E>": 1558,
      "<0x0F>": 1559,
      "<0x10>": 1560,
      "<0x11>": 1561,
      "<0x12>": 1562,
      "<0x13>": 1563,
      "<0x14>": 1564,
      "<0x15>": 1565,
      "<0x16>": 1566,
      "<0x17>": 1567,
      "<0x18>": 1568,
      "<0x19>": 1569,
      "<0x1A>": 1570,
      "<0x1B>": 1571,
      "<0x1C>": 1572,
      "<0x1D>": 1573,
      "<0x1E>": 1574,
      "<0x1F>": 1575,
      "<0x20>": 1576,
      "<0x21>": 1577,
      "<0x22>": 1578,
      "<0x23>": 1579,
      "<0x24>": 1580,
      "<0x25>": 1581,
      "<0x26>": 1582,
      "<0x27>": 1583,
      "<0x28>": 1584,
      "<0x29>": 1585,
      "<0x2A>": 1586,
      "<0x2B>": 1587,
      "<0x2C>": 1588,
      "<0x2D>": 1589,
      "<0x2E>": 1590,
      "<0x2F>": 1591,
      "<0x30>": 1592,
      "<0x31>": 1593,
      "<0x32>": 1594,
      "<0x33>": 1595,
      "<0x34>": 1596,
      "<0x35>": 1597,
      "<0x36>": 1598,
      "<0x37>": 1599,
      "<0x38>": 1600,
      "<0x39>": 1601,
      "<0x3A>": 1602,
      "<0x3B>": 1603,
      "<0x3C>": 1604,
      "<0x3D>": 1605,
      "<0x3E>": 1606,
      "<0x3F>": 1607,
      "<0x40>": 1608,
      "<0x41>": 1609,
      "<0x42>": 1610,
      "<0x43>": 1611,
      "<0x44>": 1612,
      "<0x45>": 1613,
      "<0x46>": 1614,
      "<0x47>": 1615,
      "<0x48>": 1616,
      "<0x49>": 1617,
      "<0x4A>": 1618,
      "<0x4B>": 1619,
      "<0x4C>": 1620,
      "<0x4D>": 1621,
      "<0x4E>": 1622,
      "<0x4F>": 1623,
      "<0x50>": 1624,
      "<0x51>": 1625,
      "<0x52>": 1626,
      "<0x53>": 1627,
      "<0x54>": 1628,
      "<0x55>": 1629,
      "<0x56>": 1630,
      "<0x57>": 1631,
      "<0x58>": 1632,
      "<0x59>": 1633,
      "<0x5A>": 1634,
      "<0x5B>": 1635,
      "<0x5C>": 1636,
      "<0x5D>": 1637,
      "<0x5E>": 1638,
      "<0x5F>": 1639,
      "<0x60>": 1640,
      "<0x61>": 1641,
      "<0x62>": 1642,
      "<0x63>": 1643,
      "<0x64>": 1644,
      "<0x65>": 1645,
      "<0x66>": 1646,
      "<0x67>": 1647,
      "<0x68>": 1648,
      "<0x69>": 1649,
      "<0x6A>": 1650,
      "<0x6B>": 1651,
      "<0x6C>": 1652,
      "<0x6D>": 1653,
      "<0x6E>": 1654,
      "<0x6F>": 1655,
      "<0x70>": 1656,
      "<0x71>": 1657,
      "<0x72>": 1658,
      "<0x73>": 1659,
      "<0x74>": 1660,
      "<0x75>": 1661,
      "<0x76>": 1662,
      "<0x77>": 1663,
      "<0x78>": 1664,
      "<0x79>": 1665,
      "<0x7A>": 1666,
      "<0x7B>": 1667,
      "<0x7C>": 1668,
      "<0x7D>": 1669,
      "<0x7E>": 1670,
      "<0x7F>": 1671,
      "<0x80>": 1672,
      "<0x81>": 1673,
      "<0x82>": 1674,
      "<0x83>": 1675,
      "<0x84>": 1676,
      "<0x85>": 1677,
      "<0x86>": 1678,
      "<0x87>": 1679,
      "<0x88>": 1680,
      "<0x89>": 1681,
      "<0x8A>": 1682,
      "<0x8B>": 1683,
      "<0x8C>": 1684,
      "<0x8D>": 1685,
      "<0x8E>": 1686,
      "<0x8F>": 1687,
      "<0x90>": 1688,
      "<0x91>": 1689,
      "<0x92>": 1690,
      "<0x93>": 1691,
      "<0x94>": 1692,
      "<0x95>": 1693,
      "<0x96>": 1694,
      "<0x97>": 1695,
      "<0x98>": 1696,
      "<0x99>": 1697,
      "<0x9A>": 1698,
      "<0x9B>": 1699,
      "<0x9C>": 1700,
      "<0x9D>": 1701,
      "<0x9E>": 1702,
      "<0x9F>": 1703,
      "<0xA0>": 1704,
      "<0xA1>": 1705,
      "<0xA2>": 1706,
      "<0xA3>": 1707,
      "<0xA4>": 1708,
      "<0xA5>": 1709,
      "<0xA6>": 1710,
      "<0xA7>": 1711,
      "<0xA8>": 1712,
      "<0xA9>": 1713,
      "<0xAA>": 1714,
      "<0xAB>": 1715,
      "<0xAC>": 1716,
      "<0xAD>": 1717,
      "<0xAE>": 1718,
      "<0xAF>": 1719,
      "<0xB0>": 1720,
      "<0xB1>": 1721,
      "<0xB2>": 1722,
      "<0xB3>": 1723,
      "<0xB4>": 1724,
      "<0xB5>": 1725,
      "<0xB6>": 1726,
      "<0xB7>": 1727,
      "<0xB8>": 1728,
      "<0xB9>": 1729,
      "<0xBA>": 1730,
      "<0xBB>": 1731,
      "<0xBC>": 1732,
      "<0xBD>": 1733,
      "<0xBE>": 1734,
      "<0xBF>": 1735,
      "<0xC0>": 1736,
      "<0xC1>": 1737,
      "<0xC2>": 1738,
      "<0xC3>": 1739,
      "<0xC4>": 1740,
      "<0xC5>": 1741,
      "<0xC6>": 1742,
      "<0xC7>": 1743,
      "<0xC8>": 1744,
      "<0xC9>": 1745,
      "<0xCA>": 1746,
      "<0xCB>": 1747,
      "<0xCC>": 1748,
      "<0xCD>": 1749,
      "<0xCE>": 1750,
      "<0xCF>": 1751,
      "<0xD0>": 1752,
      "<0xD1>": 1753,
      "<0xD2>": 1754,
      "<0xD3>": 1755,
      "<0xD4>": 1756,
      "<0xD5>": 1757,
      "<0xD6>": 1758,
      "<0xD7>": 1759,
      "<0xD8>": 1760,
      "<0xD9>": 1761,
      "<0xDA>": 1762,
      "<0xDB>": 1763,
      "<0xDC>": 1764,
      "<0xDD>": 1765,
      "<0xDE>": 1766,
      "<0xDF>": 1767,
      "<0xE0>": 1768,
      "<0xE1>": 1769,
      "<0xE2>": 1770,
      "<0xE3>": 1771,
      "<0xE4>": 1772,
      "<0xE5>": 1773,
      "<0xE6>": 1774,
      "<0xE7>": 1775,
      "<0xE8>": 1776,
      "<0xE9>": 1777,
      "<0xEA>": 1778,
      "<0xEB>": 1779,
      "<0xEC>": 1780,
      "<0xED>": 1781,
      "<0xEE>": 1782,
      "<0xEF>": 1783,
      "<0xF0>": 1784,
      "<0xF1>": 1785,
      "<0xF2>": 1786,
      "<0xF3>": 1787,
      "<0xF4>": 1788,
      "<0xF5>": 1789,
      "<0xF6>": 1790,
      "<0xF7>": 1791,
      "<0xF8>": 1792,
      "<0xF9>": 1793,
      "<0xFA>": 1794,
      "<0xFB>": 1795,
      "<0xFC>": 1796,
      "<0xFD>": 1797,
      "<0xFE>": 1798,
      "<0xFF>": 1799,
      "▁t": 1800,
      "▁a": 1801,
      "in": 1802,
      "he": 1803,
      "re": 1804,
      "on": 1805,
      "er": 1806,
      "▁s": 1807,
      "▁the": 1808,
      "en": 1809,
      "at": 1810,
      "▁▁": 1811,
      "or": 1812,
      "▁c": 1813,
      "▁w": 1814,
      "es": 1815,
      "it": 1816,
      "ou": 1817,
      "an": 1818,
      "is": 1819,
      "▁p": 1820,
      "▁d": 1821,
      "▁f": 1822,
      "▁b": 1823,
      "▁o": 1824,
      "ing": 1825,
      "al": 1826,
      "ar": 1827,
      "▁m": 1828,
      "▁an": 1829,
      "ed": 1830,
      "▁to": 1831,
      "▁in": 1832,
      "as": 1833,
      "le": 1834,
      "ic": 1835,
      "▁of": 1836,
      "▁and": 1837,
      "om": 1838,
      "ion": 1839,
      "▁h": 1840,
      "▁▁▁▁": 1841,
      "▁l": 1842,
      "▁th": 1843,
      "ent": 1844,
      "▁e": 1845,
      "il": 1846,
      "▁n": 1847,
      "st": 1848,
      "ro": 1849,
      "el": 1850,
      "et": 1851,
      "▁re": 1852,
      "ct": 1853,
      "▁g": 1854,
      "id": 1855,
      "▁y": 1856,
      "▁I": 1857,
      "ve": 1858,
      "ad": 1859,
      "ot": 1860,
      "am": 1861,
      "▁T": 1862,
      "im": 1863,
      "▁u": 1864,
      "▁is": 1865,
      "▁S": 1866,
      "ac": 1867,
      "ol": 1868,
      "ig": 1869,
      "▁on": 1870,
      "▁be": 1871,
      "ly": 1872,
      "ay": 1873,
      "▁for": 1874,
      "ow": 1875,
      "▁you": 1876,
      "ut": 1877,
      "▁A": 1878,
      "se": 1879,
      "▁C": 1880,
      "▁de": 1881,
      "ver": 1882,
      "ur": 1883,
      "▁st": 1884,
      "▁that": 1885,
      "ation": 1886,
      "ir": 1887,
      "ith": 1888,
      "ch": 1889,
      "qu": 1890,
      "ce": 1891,
      "▁M": 1892,
      "os": 1893,
      "ul": 1894,
      "▁it": 1895,
      "▁with": 1896,
      "▁▁▁▁▁▁▁▁": 1897,
      "▁he": 1898,
      "if": 1899,
      "▁al": 1900,
      "ter": 1901,
      "▁as": 1902,
      "ag": 1903,
      "▁P": 1904,
      "▁con": 1905,
      "est": 1906,
      "un": 1907,
      "od": 1908,
      "▁B": 1909,
      "▁v": 1910,
      "em": 1911,
      "ri": 1912,
      "▁(": 1913,
      "▁wh": 1914,
      "ra": 1915,
      "▁pro": 1916,
      "out": 1917,
      "ill": 1918,
      "us": 1919,
      "▁com": 1920,
      "ab": 1921,
      "ers": 1922,
      "▁we": 1923,
      "ke": 1924,
      "pp": 1925,
      "nd": 1926,
      "and": 1927,
      "res": 1928,
      "▁are": 1929,
      "ate": 1930,
      "▁D": 1931,
      "ess": 1932,
      "▁se": 1933,
      "ist": 1934,
      "um": 1935,
      "her": 1936,
      "our": 1937,
      "ant": 1938,
      "ort": 1939,
      "▁W": 1940,
      "▁H": 1941,
      "▁ha": 1942,
      "▁at": 1943,
      "▁or": 1944,
      "op": 1945,
      "▁The": 1946,
      "▁F": 1947,
      "ht": 1948,
      "ld": 1949,
      "ore": 1950,
      "▁r": 1951,
      "▁ex": 1952,
      "oc": 1953,
      "▁was": 1954,
      "▁R": 1955,
      "▁ne": 1956,
      "rom": 1957,
      "▁L": 1958,
      "art": 1959,
      "nt": 1960,
      "▁su": 1961,
      "pe": 1962,
      "▁en": 1963,
      "▁E": 1964,
      "iv": 1965,
      "ment": 1966,
      "ain": 1967,
      "▁G": 1968,
      "▁N": 1969,
      "▁this": 1970,
      "ity": 1971,
      "th": 1972,
      "▁have": 1973,
      "ie": 1974,
      "▁not": 1975,
      "▁le": 1976,
      "ust": 1977,
      "▁qu": 1978,
      "▁ch": 1979,
      "▁from": 1980,
      "ive": 1981,
      "▁sh": 1982,
      "end": 1983,
      "ies": 1984,
      "ight": 1985,
      "▁can": 1986,
      "▁by": 1987,
      "▁\"": 1988,
      "▁j": 1989,
      "all": 1990,
      "ud": 1991,
      "te": 1992,
      "▁O": 1993,
      "▁your": 1994,
      "pt": 1995,
      "▁do": 1996,
      "ell": 1997,
      "ost": 1998,
      "ard": 1999,
      "red": 2000,
      "ould": 2001,
      "▁pl": 2002,
      "ome": 2003,
      "ine": 2004,
      "ial": 2005,
      "ction": 2006,
      "▁ab": 2007,
      "ack": 2008,
      "pl": 2009,
      "▁will": 2010,
      "ok": 2011,
      "▁k": 2012,
      "ame": 2013,
      "og": 2014,
      "rou": 2015,
      "per": 2016,
      "ge": 2017,
      "ure": 2018,
      "ue": 2019,
      "ide": 2020,
      "ast": 2021,
      "▁un": 2022,
      "▁all": 2023,
      "ak": 2024,
      "▁J": 2025,
      "iz": 2026,
      "age": 2027,
      "▁=": 2028,
      "▁wor": 2029,
      "ia": 2030,
      "▁me": 2031,
      "fe": 2032,
      "ind": 2033,
      "▁tr": 2034,
      "ally": 2035,
      "▁us": 2036,
      "--": 2037,
      "▁go": 2038,
      "ass": 2039,
      "▁cl": 2040,
      "The": 2041,
      "ich": 2042,
      "▁whe": 2043,
      "▁but": 2044,
      "▁ad": 2045,
      "ice": 2046,
      "▁has": 2047,
      "ear": 2048,
      "are": 2049,
      "able": 2050,
      "ip": 2051,
      "ans": 2052,
      "one": 2053,
      "▁comp": 2054,
      "▁U": 2055,
      "▁so": 2056,
      "ub": 2057,
      "▁out": 2058,
      "ous": 2059,
      "▁la": 2060,
      "ib": 2061,
      "ime": 2062,
      "cl": 2063,
      "orm": 2064,
      "ther": 2065,
      "▁im": 2066,
      "ap": 2067,
      "ated": 2068,
      "ong": 2069,
      "cc": 2070,
      "ne": 2071,
      "ook": 2072,
      "gh": 2073,
      "▁they": 2074,
      "▁up": 2075,
      "ake": 2076,
      "so": 2077,
      "to": 2078,
      "ite": 2079,
      "▁cont": 2080,
      "ult": 2081,
      "ire": 2082,
      "▁my": 2083,
      "port": 2084,
      "av": 2085,
      "▁their": 2086,
      "very": 2087,
      "act": 2088,
      "ile": 2089,
      "ace": 2090,
      "▁more": 2091,
      "con": 2092,
      "▁res": 2093,
      "▁one": 2094,
      "▁per": 2095,
      "ase": 2096,
      "▁Th": 2097,
      "ions": 2098,
      ");": 2099,
      "▁In": 2100,
      "▁his": 2101,
      "ance": 2102,
      "du": 2103,
      "▁K": 2104,
      "ff": 2105,
      "▁man": 2106,
      "ber": 2107,
      "ign": 2108,
      "ail": 2109,
      "au": 2110,
      "▁li": 2111,
      "▁V": 2112,
      "ep": 2113,
      "int": 2114,
      "ry": 2115,
      "▁which": 2116,
      "▁te": 2117,
      "ach": 2118,
      "▁app": 2119,
      "▁about": 2120,
      "ord": 2121,
      "▁▁▁▁▁▁▁▁▁▁▁▁▁▁▁▁": 2122,
      "▁who": 2123,
      "ll": 2124,
      "ens": 2125,
      "ks": 2126,
      "▁fe": 2127,
      "ations": 2128,
      "ary": 2129,
      "ru": 2130,
      "▁des": 2131,
      "▁dis": 2132,
      "▁no": 2133,
      "▁sa": 2134,
      "▁get": 2135,
      "form": 2136,
      "▁-": 2137,
      "lic": 2138,
      "▁part": 2139,
      "▁ev": 2140,
      "vel": 2141,
      "ress": 2142,
      "▁Y": 2143,
      "ose": 2144,
      "ents": 2145,
      "▁St": 2146,
      "▁ar": 2147,
      "com": 2148,
      "▁sp": 2149,
      "▁new": 2150,
      "▁our": 2151,
      "▁also": 2152,
      "ount": 2153,
      "▁other": 2154,
      "▁time": 2155,
      "▁some": 2156,
      "reat": 2157,
      "own": 2158,
      "ely": 2159,
      "ical": 2160,
      "▁pre": 2161,
      "▁ser": 2162,
      "ays": 2163,
      "▁were": 2164,
      "▁{": 2165,
      "ition": 2166,
      "▁ag": 2167,
      "ree": 2168,
      "▁off": 2169,
      "ence": 2170,
      "urn": 2171,
      "..": 2172,
      "▁It": 2173,
      "▁her": 2174,
      "▁que": 2175,
      "▁if": 2176,
      "▁had": 2177,
      "ang": 2178,
      "▁any": 2179,
      "▁pe": 2180,
      "ob": 2181,
      "▁$": 2182,
      "▁there": 2183,
      "ings": 2184,
      "▁sc": 2185,
      "▁them": 2186,
      "xt": 2187,
      "ren": 2188,
      "▁year": 2189,
      "▁been": 2190,
      "▁like": 2191,
      "▁em": 2192,
      "▁when": 2193,
      "ick": 2194,
      "▁Ch": 2195,
      "▁work": 2196,
      "▁*": 2197,
      "▁over": 2198,
      "ors": 2199,
      "ark": 2200,
      "▁would": 2201,
      "ove": 2202,
      "ild": 2203,
      "▁am": 2204,
      "▁ro": 2205,
      "ov": 2206,
      "//": 2207,
      "ade": 2208,
      "vers": 2209,
      "▁what": 2210,
      "ound": 2211,
      "▁just": 2212,
      "ory": 2213,
      "▁pr": 2214,
      "▁kn": 2215,
      "je": 2216,
      "ink": 2217,
      "▁▁▁▁▁▁▁▁▁▁▁▁": 2218,
      "▁than": 2219,
      "ck": 2220,
      "io": 2221,
      "▁'": 2222,
      "che": 2223,
      "get": 2224,
      "ual": 2225,
      "irst": 2226,
      "de": 2227,
      "fter": 2228,
      "ert": 2229,
      "▁into": 2230,
      "▁its": 2231,
      "rent": 2232,
      "ft": 2233,
      "oy": 2234,
      "▁need": 2235,
      "▁und": 2236,
      "▁acc": 2237,
      "▁rec": 2238,
      "old": 2239,
      "ople": 2240,
      "ish": 2241,
      "▁how": 2242,
      "ont": 2243,
      "iss": 2244,
      "we": 2245,
      "▁comm": 2246,
      "ater": 2247,
      "ood": 2248,
      "ces": 2249,
      "oll": 2250,
      "wn": 2251,
      "ph": 2252,
      "ple": 2253,
      "▁bl": 2254,
      "▁par": 2255,
      "▁el": 2256,
      "ata": 2257,
      "▁bec": 2258,
      "▁she": 2259,
      "elf": 2260,
      "itt": 2261,
      "ian": 2262,
      "▁est": 2263,
      "▁He": 2264,
      "ject": 2265,
      "▁spe": 2266,
      "▁tw": 2267,
      "tern": 2268,
      "clud": 2269,
      "▁people": 2270,
      "ond": 2271,
      "ath": 2272,
      "ons": 2273,
      "ause": 2274,
      "igh": 2275,
      "▁bet": 2276,
      "ient": 2277,
      "ring": 2278,
      "▁act": 2279,
      "In": 2280,
      "▁add": 2281,
      "ific": 2282,
      "▁co": 2283,
      "=\"": 2284,
      "ty": 2285,
      "▁said": 2286,
      "ps": 2287,
      "▁first": 2288,
      "ates": 2289,
      "▁This": 2290,
      "▁may": 2291,
      "ious": 2292,
      "▁only": 2293,
      "ock": 2294,
      "▁cons": 2295,
      "▁We": 2296,
      "iew": 2297,
      "ict": 2298,
      "gr": 2299,
      "ise": 2300,
      "----": 2301,
      "▁use": 2302,
      "▁▁▁▁▁▁": 2303,
      "▁know": 2304,
      "▁“": 2305,
      "ret": 2306,
      "▁dif": 2307,
      "mer": 2308,
      "eth": 2309,
      "les": 2310,
      "▁–": 2311,
      "ning": 2312,
      "li": 2313,
      "▁most": 2314,
      "round": 2315,
      "▁make": 2316,
      "ful": 2317,
      "▁Re": 2318,
      "▁fl": 2319,
      "lect": 2320,
      "rough": 2321,
      "▁look": 2322,
      "ough": 2323,
      "▁bu": 2324,
      "▁want": 2325,
      "▁back": 2326,
      "▁mu": 2327,
      "▁fun": 2328,
      "▁ind": 2329,
      "**": 2330,
      "▁ent": 2331,
      "ode": 2332,
      "ating": 2333,
      "row": 2334,
      "()": 2335,
      "oss": 2336,
      "▁prov": 2337,
      "ão": 2338,
      "▁ass": 2339,
      "cial": 2340,
      "fect": 2341,
      "rit": 2342,
      "cess": 2343,
      "ss": 2344,
      "▁two": 2345,
      "▁well": 2346,
      "▁hel": 2347,
      "day": 2348,
      "▁every": 2349,
      "fore": 2350,
      "pect": 2351,
      "▁could": 2352,
      "...": 2353,
      "▁see": 2354,
      "▁reg": 2355,
      "rib": 2356,
      "▁after": 2357,
      "▁produ": 2358,
      "oint": 2359,
      "ال": 2360,
      "yst": 2361,
      "▁under": 2362,
      "▁tra": 2363,
      "▁these": 2364,
      "</": 2365,
      "▁et": 2366,
      "▁es": 2367,
      "▁through": 2368,
      "▁col": 2369,
      "erm": 2370,
      "ced": 2371,
      "▁att": 2372,
      "▁ph": 2373,
      "ex": 2374,
      "pro": 2375,
      "ener": 2376,
      "ublic": 2377,
      "▁di": 2378,
      "ull": 2379,
      "ool": 2380,
      "▁rel": 2381,
      "▁set": 2382,
      "▁includ": 2383,
      "▁inv": 2384,
      "oth": 2385,
      "▁supp": 2386,
      "▁play": 2387,
      "▁fin": 2388,
      "▁gr": 2389,
      "▁then": 2390,
      "erson": 2391,
      "Th": 2392,
      "▁[": 2393,
      "ange": 2394,
      "▁very": 2395,
      "▁don": 2396,
      "▁rem": 2397,
      "ble": 2398,
      "ular": 2399,
      "ys": 2400,
      "ew": 2401,
      "ec": 2402,
      "▁ke": 2403,
      "als": 2404,
      "ible": 2405,
      "▁ob": 2406,
      "▁del": 2407,
      "▁even": 2408,
      "ting": 2409,
      "▁ac": 2410,
      "ix": 2411,
      "▁way": 2412,
      "ement": 2413,
      "ma": 2414,
      "hen": 2415,
      "▁sur": 2416,
      "▁should": 2417,
      "ife": 2418,
      "▁where": 2419,
      "▁serv": 2420,
      "ities": 2421,
      "ments": 2422,
      "ident": 2423,
      "▁help": 2424,
      "▁inst": 2425,
      "▁che": 2426,
      "up": 2427,
      "▁good": 2428,
      "ily": 2429,
      "▁many": 2430,
      "ize": 2431,
      "ystem": 2432,
      "▁inc": 2433,
      "ased": 2434,
      "▁him": 2435,
      "hed": 2436,
      "▁now": 2437,
      "▁class": 2438,
      "▁did": 2439,
      "St": 2440,
      "▁Un": 2441,
      "let": 2442,
      "que": 2443,
      "ng": 2444,
      "its": 2445,
      "▁because": 2446,
      "▁sm": 2447,
      "olog": 2448,
      "ption": 2449,
      "ures": 2450,
      "ices": 2451,
      "▁stud": 2452,
      "▁int": 2453,
      "ier": 2454,
      "erv": 2455,
      "▁ma": 2456,
      "▁start": 2457,
      "▁You": 2458,
      "▁car": 2459,
      "aking": 2460,
      "▁&": 2461,
      "riv": 2462,
      "▁much": 2463,
      "▁years": 2464,
      "ility": 2465,
      "ale": 2466,
      "pr": 2467,
      "▁dec": 2468,
      "ug": 2469,
      "ower": 2470,
      "▁pres": 2471,
      "▁sub": 2472,
      "▁gu": 2473,
      "▁min": 2474,
      "▁mod": 2475,
      "ics": 2476,
      "ado": 2477,
      "ward": 2478,
      "enc": 2479,
      "▁down": 2480,
      "▁op": 2481,
      "any": 2482,
      "▁exper": 2483,
      "▁long": 2484,
      "ins": 2485,
      "der": 2486,
      "▁right": 2487,
      "other": 2488,
      "▁ال": 2489,
      "uring": 2490,
      "▁diffe": 2491,
      "ues": 2492,
      "ract": 2493,
      "iel": 2494,
      "ork": 2495,
      "▁trans": 2496,
      "line": 2497,
      "▁mon": 2498,
      "az": 2499,
      "▁loc": 2500,
      "ied": 2501,
      "ven": 2502,
      "ek": 2503,
      "ern": 2504,
      "▁sim": 2505,
      "ef": 2506,
      "atch": 2507,
      "▁such": 2508,
      "ash": 2509,
      "▁find": 2510,
      "▁own": 2511,
      "▁great": 2512,
      "▁i": 2513,
      "▁Wh": 2514,
      "ner": 2515,
      "ational": 2516,
      "▁And": 2517,
      "▁val": 2518,
      "co": 2519,
      "▁again": 2520,
      "▁think": 2521,
      "▁does": 2522,
      "▁Com": 2523,
      "▁ret": 2524,
      "ative": 2525,
      "▁show": 2526,
      "▁person": 2527,
      "▁requ": 2528,
      "▁num": 2529,
      "gan": 2530,
      "▁av": 2531,
      "arch": 2532,
      "▁high": 2533,
      "▁▁▁": 2534,
      "▁inter": 2535,
      "▁being": 2536,
      "ually": 2537,
      "▁ins": 2538,
      "ght": 2539,
      "ric": 2540,
      "▁end": 2541,
      "read": 2542,
      "▁def": 2543,
      "▁read": 2544,
      "arg": 2545,
      "▁aut": 2546,
      "amp": 2547,
      "velop": 2548,
      "air": 2549,
      "ited": 2550,
      "▁pol": 2551,
      "hip": 2552,
      "▁before": 2553,
      "▁bel": 2554,
      "▁best": 2555,
      "ank": 2556,
      "▁call": 2557,
      "▁z": 2558,
      "▁ext": 2559,
      "▁used": 2560,
      "▁br": 2561,
      "▁take": 2562,
      "▁cre": 2563,
      "▁Al": 2564,
      "▁day": 2565,
      "ages": 2566,
      "▁Pro": 2567,
      "way": 2568,
      "iness": 2569,
      "▁made": 2570,
      "▁form": 2571,
      "ype": 2572,
      "▁fam": 2573,
      "▁Se": 2574,
      "▁bus": 2575,
      "ollow": 2576,
      "lo": 2577,
      "be": 2578,
      "▁:": 2579,
      "▁inform": 2580,
      "ER": 2581,
      "▁those": 2582,
      "ience": 2583,
      "▁If": 2584,
      "▁med": 2585,
      "ason": 2586,
      "alth": 2587,
      "▁here": 2588,
      "pos": 2589,
      "▁det": 2590,
      "ari": 2591,
      "▁cur": 2592,
      "ctions": 2593,
      "ince": 2594,
      "ave": 2595,
      "▁ra": 2596,
      "ars": 2597,
      "==": 2598,
      "▁à": 2599,
      "▁hand": 2600,
      "ines": 2601,
      "▁real": 2602,
      "me": 2603,
      "▁De": 2604,
      "▁cor": 2605,
      "alk": 2606,
      "▁bo": 2607,
      "▁som": 2608,
      "ever": 2609,
      "ts": 2610,
      "ffect": 2611,
      "▁sign": 2612,
      "els": 2613,
      "vent": 2614,
      "▁para": 2615,
      "▁last": 2616,
      "rest": 2617,
      "ah": 2618,
      "▁str": 2619,
      "▁world": 2620,
      "ax": 2621,
      "ets": 2622,
      "ween": 2623,
      "ón": 2624,
      "▁while": 2625,
      "ds": 2626,
      "irect": 2627,
      "ien": 2628,
      "err": 2629,
      "ames": 2630,
      "put": 2631,
      "led": 2632,
      "ution": 2633,
      "▁really": 2634,
      "▁fil": 2635,
      "▁import": 2636,
      "self": 2637,
      "imes": 2638,
      "▁system": 2639,
      "▁different": 2640,
      "uc": 2641,
      "ouse": 2642,
      "▁each": 2643,
      "gram": 2644,
      "▁inte": 2645,
      "ann": 2646,
      "ms": 2647,
      "▁As": 2648,
      "▁mark": 2649,
      "▁fr": 2650,
      "arn": 2651,
      "▁life": 2652,
      "▁mem": 2653,
      "▁lo": 2654,
      "ather": 2655,
      "It": 2656,
      "sc": 2657,
      "view": 2658,
      "▁art": 2659,
      "▁é": 2660,
      "ives": 2661,
      "▁cour": 2662,
      "▁follow": 2663,
      "oun": 2664,
      "▁home": 2665,
      "▁between": 2666,
      "▁vis": 2667,
      "▁same": 2668,
      "▁around": 2669,
      "▁develop": 2670,
      "▁still": 2671,
      "▁result": 2672,
      "▁going": 2673,
      "▁cr": 2674,
      "▁sol": 2675,
      "▁sl": 2676,
      "chool": 2677,
      "par": 2678,
      "▁data": 2679,
      "the": 2680,
      "▁Le": 2681,
      "▁But": 2682,
      "land": 2683,
      "ute": 2684,
      "chn": 2685,
      "▁point": 2686,
      "ten": 2687,
      "▁run": 2688,
      "IN": 2689,
      "bs": 2690,
      "▁Ar": 2691,
      "▁count": 2692,
      "▁An": 2693,
      "akes": 2694,
      "ense": 2695,
      "▁ed": 2696,
      "ody": 2697,
      "▁conf": 2698,
      "return": 2699,
      "anc": 2700,
      "▁exp": 2701,
      "\">": 2702,
      "arm": 2703,
      "▁list": 2704,
      "und": 2705,
      "▁using": 2706,
      "We": 2707,
      "▁Sh": 2708,
      "▁found": 2709,
      "ada": 2710,
      "uss": 2711,
      "▁dist": 2712,
      "ants": 2713,
      "▁gener": 2714,
      "▁poss": 2715,
      "ica": 2716,
      "roup": 2717,
      "ider": 2718,
      "ON": 2719,
      "▁both": 2720,
      "eng": 2721,
      "ional": 2722,
      "ized": 2723,
      "▁For": 2724,
      "▁support": 2725,
      "ión": 2726,
      "riend": 2727,
      "▁lead": 2728,
      "orn": 2729,
      "app": 2730,
      "▁\\": 2731,
      "▁New": 2732,
      "::": 2733,
      "ness": 2734,
      "▁+": 2735,
      "▁test": 2736,
      "▁say": 2737,
      "▁gl": 2738,
      "▁lot": 2739,
      "ital": 2740,
      "▁post": 2741,
      "ina": 2742,
      "ature": 2743,
      "▁partic": 2744,
      "Wh": 2745,
      "ton": 2746,
      "▁place": 2747,
      "▁prof": 2748,
      "cept": 2749,
      "▁da": 2750,
      "▁process": 2751,
      "▁eas": 2752,
      "▁<": 2753,
      "ittle": 2754,
      "ired": 2755,
      "▁pass": 2756,
      "man": 2757,
      "▁cle": 2758,
      "▁fact": 2759,
      "ways": 2760,
      "▁child": 2761,
      "▁too": 2762,
      "▁product": 2763,
      "This": 2764,
      "->": 2765,
      "▁resp": 2766,
      "▁team": 2767,
      "cond": 2768,
      "▁disc": 2769,
      "ters": 2770,
      "ruct": 2771,
      "ined": 2772,
      "▁few": 2773,
      "--------": 2774,
      "gg": 2775,
      "▁business": 2776,
      "ator": 2777,
      "▁They": 2778,
      "urs": 2779,
      "ament": 2780,
      "less": 2781,
      "oci": 2782,
      "atic": 2783,
      "▁pat": 2784,
      "ying": 2785,
      "▁happ": 2786,
      "▁design": 2787,
      "▁information": 2788,
      "▁met": 2789,
      "Re": 2790,
      "▁book": 2791,
      "▁cent": 2792,
      "br": 2793,
      "▁commun": 2794,
      "sp": 2795,
      "▁Q": 2796,
      "▁les": 2797,
      "▁ref": 2798,
      "▁care": 2799,
      "aut": 2800,
      "ared": 2801,
      "erg": 2802,
      "ustom": 2803,
      "ving": 2804,
      "ivers": 2805,
      "(\"": 2806,
      "ething": 2807,
      "▁three": 2808,
      "▁rest": 2809,
      "▁char": 2810,
      "tr": 2811,
      "aw": 2812,
      "▁const": 2813,
      "▁por": 2814,
      "▁week": 2815,
      "▁feel": 2816,
      "ought": 2817,
      "▁sk": 2818,
      "thing": 2819,
      "▁top": 2820,
      "val": 2821,
      "bo": 2822,
      "▁things": 2823,
      "▁program": 2824,
      "ross": 2825,
      "tt": 2826,
      "rol": 2827,
      "vern": 2828,
      "cent": 2829,
      "▁inf": 2830,
      "▁come": 2831,
      "▁main": 2832,
      "▁dep": 2833,
      "arly": 2834,
      "▁Z": 2835,
      "▁number": 2836,
      "▁imp": 2837,
      "ism": 2838,
      "▁Ad": 2839,
      "__": 2840,
      "oid": 2841,
      "▁month": 2842,
      "▁tem": 2843,
      "ES": 2844,
      "▁rep": 2845,
      "ery": 2846,
      "ção": 2847,
      "ik": 2848,
      "▁during": 2849,
      "▁open": 2850,
      "▁pos": 2851,
      "▁little": 2852,
      "inal": 2853,
      "yp": 2854,
      "ait": 2855,
      "▁|": 2856,
      "▁contin": 2857,
      "▁quest": 2858,
      "▁cas": 2859,
      "ield": 2860,
      "orth": 2861,
      "▁There": 2862,
      "hes": 2863,
      "▁ה": 2864,
      "▁iss": 2865,
      "▁free": 2866,
      "▁game": 2867,
      "▁Cl": 2868,
      "▁exam": 2869,
      "://": 2870,
      "of": 2871,
      "▁something": 2872,
      "▁tri": 2873,
      "▁provid": 2874,
      "ij": 2875,
      "▁How": 2876,
      "▁appro": 2877,
      "▁proble": 2878,
      "▁keep": 2879,
      "▁without": 2880,
      "▁los": 2881,
      "att": 2882,
      "ows": 2883,
      "▁ve": 2884,
      "lease": 2885,
      "▁spec": 2886,
      "ved": 2887,
      "▁adv": 2888,
      "oot": 2889,
      "▁put": 2890,
      "ware": 2891,
      "▁effect": 2892,
      "▁report": 2893,
      "ists": 2894,
      "ym": 2895,
      "min": 2896,
      "ety": 2897,
      "▁got": 2898,
      "▁might": 2899,
      "ung": 2900,
      "ivid": 2901,
      "▁head": 2902,
      "▁plan": 2903,
      "▁Pl": 2904,
      "ality": 2905,
      "▁She": 2906,
      "▁So": 2907,
      "▁name": 2908,
      "ertain": 2909,
      "▁techn": 2910,
      "▁sit": 2911,
      "AR": 2912,
      "▁health": 2913,
      "▁better": 2914,
      "atur": 2915,
      "ior": 2916,
      "▁Be": 2917,
      "▁expl": 2918,
      "▁incre": 2919,
      "▁ca": 2920,
      "▁another": 2921,
      "▁important": 2922,
      "▁Tr": 2923,
      "▁ide": 2924,
      "bers": 2925,
      "▁Fr": 2926,
      "oor": 2927,
      "▁small": 2928,
      "▁since": 2929,
      "reen": 2930,
      "▁build": 2931,
      "▁must": 2932,
      "▁next": 2933,
      "ique": 2934,
      "▁love": 2935,
      "ats": 2936,
      "▁dem": 2937,
      "stand": 2938,
      "▁On": 2939,
      "work": 2940,
      "▁wr": 2941,
      "AT": 2942,
      "▁ele": 2943,
      "▁direct": 2944,
      "▁Amer": 2945,
      "▁always": 2946,
      "for": 2947,
      "ision": 2948,
      "ves": 2949,
      "▁rece": 2950,
      "▁cho": 2951,
      "sh": 2952,
      "▁market": 2953,
      "ology": 2954,
      "▁mov": 2955,
      "▁/": 2956,
      "rence": 2957,
      "▁big": 2958,
      "ument": 2959,
      "ream": 2960,
      "hor": 2961,
      "ailable": 2962,
      "▁let": 2963,
      "raph": 2964,
      "▁organ": 2965,
      "▁du": 2966,
      "ote": 2967,
      "ished": 2968,
      "▁never": 2969,
      "▁friend": 2970,
      "▁invest": 2971,
      "▁perform": 2972,
      "▁pay": 2973,
      "▁Bl": 2974,
      "▁public": 2975,
      "▁stand": 2976,
      "iving": 2977,
      "ccess": 2978,
      "OR": 2979,
      "ining": 2980,
      "ux": 2981,
      "bl": 2982,
      "▁interest": 2983,
      "('": 2984,
      "▁Con": 2985,
      "rem": 2986,
      "ateg": 2987,
      "ential": 2988,
      "▁sure": 2989,
      "▁level": 2990,
      "urch": 2991,
      "ately": 2992,
      "▁Ind": 2993,
      "ope": 2994,
      "▁wom": 2995,
      "▁ver": 2996,
      "▁water": 2997,
      "uro": 2998,
      "ering": 2999,
      "▁equ": 3000,
      "ploy": 3001,
      "▁hard": 3002,
      "▁school": 3003,
      "EN": 3004,
      "ral": 3005,
      "ethod": 3006,
      "ource": 3007,
      "He": 3008,
      "ott": 3009,
      "▁turn": 3010,
      "oh": 3011,
      "▁including": 3012,
      "ems": 3013,
      "▁sec": 3014,
      "▁old": 3015,
      "▁Ex": 3016,
      "▁company": 3017,
      "▁mus": 3018,
      "▁cap": 3019,
      "▁family": 3020,
      "set": 3021,
      "▁oper": 3022,
      "oney": 3023,
      "▁pop": 3024,
      "ically": 3025,
      "▁current": 3026,
      "ci": 3027,
      "ai": 3028,
      "ron": 3029,
      "▁project": 3030,
      "▁sal": 3031,
      "▁able": 3032,
      "import": 3033,
      "yn": 3034,
      "text": 3035,
      "ocial": 3036,
      "▁mat": 3037,
      "▁second": 3038,
      "▁custom": 3039,
      "();": 3040,
      "▁ask": 3041,
      "▁cost": 3042,
      "tain": 3043,
      "ours": 3044,
      "med": 3045,
      "▁ann": 3046,
      "▁bro": 3047,
      "▁online": 3048,
      "▁state": 3049,
      "▁power": 3050,
      "arent": 3051,
      "son": 3052,
      "illion": 3053,
      "▁present": 3054,
      "▁self": 3055,
      "▁against": 3056,
      "▁available": 3057,
      "rist": 3058,
      "ffic": 3059,
      "▁case": 3060,
      "gin": 3061,
      "▁Sp": 3062,
      "bre": 3063,
      "here": 3064,
      "Pro": 3065,
      "▁hum": 3066,
      "▁bre": 3067,
      "▁return": 3068,
      "▁leg": 3069,
      "és": 3070,
      "▁opp": 3071,
      "AN": 3072,
      "ients": 3073,
      "If": 3074,
      "ency": 3075,
      "▁bas": 3076,
      "▁intern": 3077,
      "▁Is": 3078,
      "▁dev": 3079,
      "▁order": 3080,
      "▁prote": 3081,
      "ush": 3082,
      "▁prom": 3083,
      "▁less": 3084,
      "Con": 3085,
      "uck": 3086,
      "▁unt": 3087,
      "ino": 3088,
      "comm": 3089,
      "▁.": 3090,
      "cri": 3091,
      "▁days": 3092,
      "▁function": 3093,
      "▁proper": 3094,
      "▁ce": 3095,
      "▁vers": 3096,
      "▁—": 3097,
      "ably": 3098,
      "▁term": 3099,
      "ified": 3100,
      "▁dr": 3101,
      "▁within": 3102,
      "ray": 3103,
      "▁type": 3104,
      "por": 3105,
      "arge": 3106,
      "ger": 3107,
      "ission": 3108,
      "▁hist": 3109,
      "▁give": 3110,
      "▁addition": 3111,
      "▁grow": 3112,
      "ention": 3113,
      "▁pa": 3114,
      "▁stat": 3115,
      "▁non": 3116,
      "▁win": 3117,
      "ump": 3118,
      "▁chang": 3119,
      "ium": 3120,
      "Ch": 3121,
      "▁line": 3122,
      "▁experience": 3123,
      "\")": 3124,
      "▁activ": 3125,
      "by": 3126,
      "▁sing": 3127,
      "▁service": 3128,
      "new": 3129,
      "▁mar": 3130,
      "▁belie": 3131,
      "▁All": 3132,
      "▁ben": 3133,
      "▁local": 3134,
      "ST": 3135,
      "iven": 3136,
      "▁ap": 3137,
      "▁beh": 3138,
      "public": 3139,
      "▁cond": 3140,
      "ization": 3141,
      "ently": 3142,
      "▁value": 3143,
      "▁@": 3144,
      "▁full": 3145,
      "As": 3146,
      "▁comple": 3147,
      "▁manag": 3148,
      "outh": 3149,
      "ando": 3150,
      "ID": 3151,
      "▁change": 3152,
      "go": 3153,
      "ards": 3154,
      "era": 3155,
      "ember": 3156,
      "▁vide": 3157,
      "ane": 3158,
      "▁Te": 3159,
      "ole": 3160,
      "▁US": 3161,
      "▁To": 3162,
      "une": 3163,
      "▁Sc": 3164,
      "ains": 3165,
      "▁light": 3166,
      "ctor": 3167,
      "▁opt": 3168,
      "▁men": 3169,
      "ised": 3170,
      "▁four": 3171,
      "IT": 3172,
      "pon": 3173,
      "▁away": 3174,
      "▁govern": 3175,
      "▁exc": 3176,
      "ording": 3177,
      "▁Ph": 3178,
      "▁▁▁▁▁▁▁": 3179,
      "▁fac": 3180,
      "▁access": 3181,
      "iron": 3182,
      "▁pour": 3183,
      "Com": 3184,
      "▁view": 3185,
      "itions": 3186,
      "▁event": 3187,
      "▁conc": 3188,
      "▁law": 3189,
      "You": 3190,
      "use": 3191,
      "AL": 3192,
      "▁group": 3193,
      "load": 3194,
      "▁thing": 3195,
      "▁Or": 3196,
      "ante": 3197,
      "▁eng": 3198,
      "uf": 3199,
      "ref": 3200,
      "name": 3201,
      "den": 3202,
      "▁expect": 3203,
      "jor": 3204,
      "▁making": 3205,
      "ured": 3206,
      "vious": 3207,
      "▁working": 3208,
      "Ex": 3209,
      "RE": 3210,
      "▁until": 3211,
      "roll": 3212,
      "▁rese": 3213,
      "▁▁▁▁▁▁▁▁▁▁▁▁▁▁▁▁▁▁▁▁": 3214,
      "ling": 3215,
      "▁why": 3216,
      "▁thought": 3217,
      "▁That": 3218,
      "def": 3219,
      "pped": 3220,
      "ican": 3221,
      "##": 3222,
      "▁allow": 3223,
      "▁kind": 3224,
      "\":": 3225,
      "ries": 3226,
      "▁area": 3227,
      "))": 3228,
      "ches": 3229,
      "ird": 3230,
      "utes": 3231,
      "▁vari": 3232,
      "▁applic": 3233,
      "▁conne": 3234,
      "ha": 3235,
      "▁pot": 3236,
      "An": 3237,
      "▁Col": 3238,
      "ortun": 3239,
      "▁sw": 3240,
      "cont": 3241,
      "yle": 3242,
      "istr": 3243,
      "▁mom": 3244,
      "▁site": 3245,
      "▁una": 3246,
      "▁money": 3247,
      "▁lim": 3248,
      "ively": 3249,
      "rap": 3250,
      "▁food": 3251,
      "ability": 3252,
      "ending": 3253,
      "▁bit": 3254,
      "▁No": 3255,
      "pecial": 3256,
      "ready": 3257,
      "▁left": 3258,
      "▁X": 3259,
      "▁job": 3260,
      "▁didn": 3261,
      "▁Mar": 3262,
      "▁understand": 3263,
      "▁las": 3264,
      "▁Go": 3265,
      "col": 3266,
      "▁having": 3267,
      "▁provide": 3268,
      "back": 3269,
      "▁check": 3270,
      "ots": 3271,
      "ination": 3272,
      "▁certain": 3273,
      "aster": 3274,
      "ories": 3275,
      "▁past": 3276,
      "ived": 3277,
      "icle": 3278,
      "▁times": 3279,
      "div": 3280,
      "▁um": 3281,
      "iment": 3282,
      "▁ant": 3283,
      "▁anal": 3284,
      "▁Su": 3285,
      "joy": 3286,
      "sw": 3287,
      "▁today": 3288,
      "AS": 3289,
      "▁looking": 3290,
      "amb": 3291,
      "htt": 3292,
      "▁phot": 3293,
      "▁mil": 3294,
      "▁ris": 3295,
      "▁social": 3296,
      "enn": 3297,
      "▁night": 3298,
      "▁individ": 3299,
      "rop": 3300,
      "lection": 3301,
      "▁actually": 3302,
      "▁cou": 3303,
      "conom": 3304,
      "▁house": 3305,
      "▁along": 3306,
      "▁far": 3307,
      "ances": 3308,
      "wh": 3309,
      "▁children": 3310,
      "raw": 3311,
      "▁enc": 3312,
      "pping": 3313,
      "▁meet": 3314,
      "itive": 3315,
      "add": 3316,
      "▁When": 3317,
      "ails": 3318,
      "▁mult": 3319,
      "ify": 3320,
      "▁tot": 3321,
      "rivate": 3322,
      "▁lik": 3323,
      "ene": 3324,
      "ze": 3325,
      "▁possible": 3326,
      "ury": 3327,
      "▁air": 3328,
      "▁control": 3329,
      "uff": 3330,
      "▁special": 3331,
      "ask": 3332,
      "ocus": 3333,
      "leg": 3334,
      "▁Br": 3335,
      "ault": 3336,
      "aterial": 3337,
      "▁trad": 3338,
      "▁side": 3339,
      "iversity": 3340,
      "veral": 3341,
      "side": 3342,
      "▁Gr": 3343,
      "erc": 3344,
      "▁En": 3345,
      "▁course": 3346,
      "fer": 3347,
      "▁success": 3348,
      "not": 3349,
      "▁already": 3350,
      "▁often": 3351,
      "ids": 3352,
      "▁occ": 3353,
      "ued": 3354,
      "▁impro": 3355,
      "ister": 3356,
      "====": 3357,
      "▁toget": 3358,
      "ico": 3359,
      "play": 3360,
      "▁together": 3361,
      "ither": 3362,
      "acter": 3363,
      "lish": 3364,
      "resent": 3365,
      "▁tell": 3366,
      "▁account": 3367,
      "▁called": 3368,
      "▁port": 3369,
      "▁enough": 3370,
      "ered": 3371,
      "reg": 3372,
      "▁il": 3373,
      "aim": 3374,
      "▁Man": 3375,
      "ley": 3376,
      "ney": 3377,
      "▁cal": 3378,
      "▁short": 3379,
      "▁method": 3380,
      "▁move": 3381,
      "▁Res": 3382,
      "▁try": 3383,
      "▁vol": 3384,
      "▁mean": 3385,
      "▁At": 3386,
      "▁م": 3387,
      "inc": 3388,
      "▁#": 3389,
      "ended": 3390,
      "▁create": 3391,
      "▁following": 3392,
      "ike": 3393,
      "▁son": 3394,
      "▁writ": 3395,
      "▁pract": 3396,
      "ser": 3397,
      "elt": 3398,
      ").": 3399,
      "▁room": 3400,
      "ead": 3401,
      "iver": 3402,
      "▁body": 3403,
      "▁dri": 3404,
      "▁season": 3405,
      "▁large": 3406,
      "ros": 3407,
      "ais": 3408,
      "▁webs": 3409,
      "ato": 3410,
      "▁consider": 3411,
      "▁der": 3412,
      "▁done": 3413,
      "▁env": 3414,
      "▁record": 3415,
      "▁elect": 3416,
      "str": 3417,
      "▁super": 3418,
      "▁says": 3419,
      "▁ב": 3420,
      "▁die": 3421,
      "over": 3422,
      "▁true": 3423,
      "▁typ": 3424,
      "ida": 3425,
      "▁creat": 3426,
      "▁ל": 3427,
      "▁}": 3428,
      "▁Comm": 3429,
      "▁based": 3430,
      "ands": 3431,
      "▁talk": 3432,
      "ift": 3433,
      "eb": 3434,
      "aces": 3435,
      "eter": 3436,
      "aring": 3437,
      "▁individual": 3438,
      "itor": 3439,
      "ule": 3440,
      "▁problem": 3441,
      "ido": 3442,
      "▁treat": 3443,
      "What": 3444,
      "▁getting": 3445,
      "ched": 3446,
      "ación": 3447,
      "alf": 3448,
      "▁orig": 3449,
      "▁example": 3450,
      "▁ever": 3451,
      "▁cell": 3452,
      "▁Christ": 3453,
      "▁▁▁▁▁▁▁▁▁▁": 3454,
      "▁Pr": 3455,
      "vert": 3456,
      "▁x": 3457,
      "▁ident": 3458,
      "▁several": 3459,
      "▁van": 3460,
      "ides": 3461,
      "▁feat": 3462,
      "▁offic": 3463,
      "irl": 3464,
      "▁▁▁▁▁▁▁▁▁▁▁▁▁▁▁▁▁▁▁▁▁▁▁▁▁▁▁▁▁▁▁▁": 3465,
      "▁though": 3466,
      "▁err": 3467,
      "IC": 3468,
      "▁profess": 3469,
      "▁services": 3470,
      "▁means": 3471,
      "▁indust": 3472,
      "▁learn": 3473,
      "▁App": 3474,
      "▁fut": 3475,
      "▁employ": 3476,
      "af": 3477,
      "▁makes": 3478,
      "To": 3479,
      "▁enjoy": 3480,
      "▁become": 3481,
      "▁With": 3482,
      "ones": 3483,
      "ulation": 3484,
      "▁net": 3485,
      "▁doesn": 3486,
      "****": 3487,
      "▁story": 3488,
      "▁What": 3489,
      "fig": 3490,
      "ades": 3491,
      "ills": 3492,
      "AM": 3493,
      "▁fav": 3494,
      "itle": 3495,
      "▁var": 3496,
      "▁God": 3497,
      "▁key": 3498,
      "▁doing": 3499,
      "▁Can": 3500,
      "cle": 3501,
      "rain": 3502,
      "▁Car": 3503,
      "ados": 3504,
      "▁least": 3505,
      "fic": 3506,
      "▁low": 3507,
      "eral": 3508,
      "essage": 3509,
      "ohn": 3510,
      "▁file": 3511,
      "▁`": 3512,
      "ox": 3513,
      "type": 3514,
      "▁specific": 3515,
      "▁visit": 3516,
      "For": 3517,
      "cted": 3518,
      "▁country": 3519,
      "Cl": 3520,
      "LE": 3521,
      "aps": 3522,
      "acy": 3523,
      "ored": 3524,
      "▁מ": 3525,
      "▁pain": 3526,
      "▁particular": 3527,
      "agn": 3528,
      "Se": 3529,
      "ams": 3530,
      "ape": 3531,
      "const": 3532,
      "On": 3533,
      "▁won": 3534,
      "osp": 3535,
      "▁others": 3536,
      "▁benef": 3537,
      "▁easy": 3538,
      "mod": 3539,
      "▁students": 3540,
      "▁redu": 3541,
      "▁na": 3542,
      "▁--": 3543,
      "ores": 3544,
      "▁video": 3545,
      "▁women": 3546,
      "▁Cent": 3547,
      "▁mind": 3548,
      "most": 3549,
      "▁came": 3550,
      "▁major": 3551,
      "sel": 3552,
      "pre": 3553,
      "):": 3554,
      "▁mot": 3555,
      "ml": 3556,
      "▁prob": 3557,
      "▁However": 3558,
      "urther": 3559,
      "▁=>": 3560,
      "▁soft": 3561,
      "▁ou": 3562,
      "▁once": 3563,
      "▁My": 3564,
      "▁dé": 3565,
      "▁une": 3566,
      "time": 3567,
      "date": 3568,
      "cer": 3569,
      "▁deal": 3570,
      "ות": 3571,
      "▁comes": 3572,
      "▁hold": 3573,
      "▁final": 3574,
      "▁across": 3575,
      "▁community": 3576,
      "ference": 3577,
      "▁live": 3578,
      "▁fore": 3579,
      "▁focus": 3580,
      "org": 3581,
      "Name": 3582,
      "requ": 3583,
      "▁else": 3584,
      "this": 3585,
      "AC": 3586,
      "til": 3587,
      "ler": 3588,
      "▁May": 3589,
      "▁camp": 3590,
      "▁include": 3591,
      "▁como": 3592,
      "▁qui": 3593,
      "▁Eng": 3594,
      "arget": 3595,
      "ים": 3596,
      "▁happen": 3597,
      "▁given": 3598,
      "▁و": 3599,
      "▁hig": 3600,
      "▁comb": 3601,
      "aken": 3602,
      "▁later": 3603,
      "▁sum": 3604,
      "▁took": 3605,
      "wards": 3606,
      "iod": 3607,
      "▁tre": 3608,
      "▁==": 3609,
      "▁reason": 3610,
      "▁needs": 3611,
      "fl": 3612,
      "▁require": 3613,
      "▁complet": 3614,
      "▁government": 3615,
      "osed": 3616,
      "▁quick": 3617,
      "▁personal": 3618,
      "▁due": 3619,
      "▁works": 3620,
      "irt": 3621,
      "fr": 3622,
      "IS": 3623,
      "book": 3624,
      "▁started": 3625,
      "▁young": 3626,
      "face": 3627,
      "Ad": 3628,
      "my": 3629,
      "▁million": 3630,
      "▁La": 3631,
      "ression": 3632,
      "▁model": 3633,
      "▁doc": 3634,
      "▁research": 3635,
      "▁went": 3636,
      "▁review": 3637,
      "{\\": 3638,
      "▁offer": 3639,
      "ception": 3640,
      "ising": 3641,
      "mber": 3642,
      "ases": 3643,
      "▁members": 3644,
      "▁study": 3645,
      "▁human": 3646,
      "▁known": 3647,
      "▁step": 3648,
      "▁These": 3649,
      "ili": 3650,
      "▁games": 3651,
      "▁א": 3652,
      "▁text": 3653,
      "ison": 3654,
      "urity": 3655,
      "var": 3656,
      "▁signific": 3657,
      "Al": 3658,
      "ext": 3659,
      "▁log": 3660,
      "xim": 3661,
      "▁Fl": 3662,
      "How": 3663,
      "ação": 3664,
      "▁ey": 3665,
      "▁ess": 3666,
      "▁Co": 3667,
      "head": 3668,
      "irm": 3669,
      "There": 3670,
      "▁material": 3671,
      "arr": 3672,
      "▁invol": 3673,
      "▁single": 3674,
      "▁products": 3675,
      "ana": 3676,
      "▁months": 3677,
      "ples": 3678,
      "ito": 3679,
      "ía": 3680,
      "▁*/": 3681,
      "But": 3682,
      "▁sex": 3683,
      "ED": 3684,
      "▁ste": 3685,
      "aff": 3686,
      "▁Ste": 3687,
      "▁rele": 3688,
      "ograph": 3689,
      "data": 3690,
      "▁pri": 3691,
      "▁pack": 3692,
      "▁ש": 3693,
      "yl": 3694,
      "idence": 3695,
      "▁quality": 3696,
      "▁question": 3697,
      "▁au": 3698,
      "hing": 3699,
      "▁music": 3700,
      "▁results": 3701,
      "ios": 3702,
      "right": 3703,
      "▁strong": 3704,
      "▁city": 3705,
      "ironment": 3706,
      "▁land": 3707,
      "▁yet": 3708,
      "Res": 3709,
      "And": 3710,
      "▁future": 3711,
      "](": 3712,
      "za": 3713,
      "▁cult": 3714,
      "gu": 3715,
      "cul": 3716,
      "ources": 3717,
      "▁hot": 3718,
      "▁begin": 3719,
      "▁stay": 3720,
      "▁econom": 3721,
      "▁early": 3722,
      "▁appear": 3723,
      "▁press": 3724,
      "▁_": 3725,
      "▁‘": 3726,
      "▁compet": 3727,
      "▁page": 3728,
      "▁sent": 3729,
      "ball": 3730,
      "ume": 3731,
      "verage": 3732,
      "Id": 3733,
      "▁prim": 3734,
      "▁Me": 3735,
      "▁development": 3736,
      "ural": 3737,
      "▁mor": 3738,
      "▁American": 3739,
      "Ar": 3740,
      "ava": 3741,
      "opy": 3742,
      "▁plus": 3743,
      "▁Euro": 3744,
      "do": 3745,
      "▁website": 3746,
      "▁University": 3747,
      "▁educ": 3748,
      "▁face": 3749,
      "▁size": 3750,
      "ables": 3751,
      "icro": 3752,
      "▁perfect": 3753,
      "▁relations": 3754,
      "▁deb": 3755,
      "lt": 3756,
      "crib": 3757,
      "▁friends": 3758,
      "▁situ": 3759,
      "▁space": 3760,
      "iqu": 3761,
      "▁El": 3762,
      "na": 3763,
      "abor": 3764,
      "▁je": 3765,
      "▁seen": 3766,
      "▁>": 3767,
      "ás": 3768,
      "▁exist": 3769,
      "ilar": 3770,
      "abel": 3771,
      "gs": 3772,
      "▁everything": 3773,
      "▁energ": 3774,
      "ama": 3775,
      "▁whether": 3776,
      "alse": 3777,
      "ply": 3778,
      "though": 3779,
      "▁code": 3780,
      "▁wind": 3781,
      "ara": 3782,
      "ibr": 3783,
      "▁os": 3784,
      "▁price": 3785,
      "po": 3786,
      "▁Qu": 3787,
      "▁cut": 3788,
      "clus": 3789,
      "▁Inst": 3790,
      "ille": 3791,
      "----------------": 3792,
      "▁walk": 3793,
      "▁object": 3794,
      "▁film": 3795,
      "▁above": 3796,
      "▁told": 3797,
      "▁someone": 3798,
      "▁content": 3799,
      "artment": 3800,
      "▁One": 3801,
      "ée": 3802,
      "unt": 3803,
      "▁pas": 3804,
      "String": 3805,
      "uly": 3806,
      "▁uma": 3807,
      "▁init": 3808,
      "orld": 3809,
      "▁amount": 3810,
      "ster": 3811,
      "▁Gu": 3812,
      "plic": 3813,
      "unch": 3814,
      "▁either": 3815,
      "raft": 3816,
      "▁sugg": 3817,
      "ips": 3818,
      "▁buy": 3819,
      "room": 3820,
      "iter": 3821,
      "▁beaut": 3822,
      "icy": 3823,
      "▁opportun": 3824,
      "▁hours": 3825,
      "▁sem": 3826,
      "lement": 3827,
      "▁bring": 3828,
      "▁especial": 3829,
      "key": 3830,
      "▁common": 3831,
      "▁dest": 3832,
      "▁suggest": 3833,
      "lex": 3834,
      "▁mid": 3835,
      "▁dans": 3836,
      "ilt": 3837,
      "▁John": 3838,
      "ength": 3839,
      "▁larg": 3840,
      "▁minutes": 3841,
      "▁cir": 3842,
      "▁discuss": 3843,
      "▁dou": 3844,
      "▁moment": 3845,
      "▁United": 3846,
      "lished": 3847,
      "ache": 3848,
      "no": 3849,
      "obal": 3850,
      "▁heart": 3851,
      "▁among": 3852,
      "▁red": 3853,
      "Cont": 3854,
      "▁respons": 3855,
      "▁compan": 3856,
      "▁tool": 3857,
      "▁polit": 3858,
      "▁Ro": 3859,
      "▁web": 3860,
      "▁hom": 3861,
      "▁share": 3862,
      "▁five": 3863,
      "action": 3864,
      "anks": 3865,
      "▁period": 3866,
      "▁gen": 3867,
      "▁sound": 3868,
      "')": 3869,
      "ained": 3870,
      "Type": 3871,
      "ervice": 3872,
      "▁series": 3873,
      "▁install": 3874,
      "▁break": 3875,
      "▁chall": 3876,
      "▁anything": 3877,
      "▁pub": 3878,
      "▁meas": 3879,
      "ites": 3880,
      "angu": 3881,
      "class": 3882,
      "ends": 3883,
      "fun": 3884,
      "ires": 3885,
      "▁ens": 3886,
      "▁sus": 3887,
      "ibility": 3888,
      "▁dig": 3889,
      "▁seem": 3890,
      "▁whole": 3891,
      "▁ge": 3892,
      "▁Cont": 3893,
      "now": 3894,
      "▁Min": 3895,
      "▁author": 3896,
      "ourn": 3897,
      "▁Do": 3898,
      "RO": 3899,
      "utions": 3900,
      "▁simple": 3901,
      "▁claim": 3902,
      "▁pret": 3903,
      "duct": 3904,
      "▁trying": 3905,
      "▁contact": 3906,
      "▁particip": 3907,
      "arning": 3908,
      "illed": 3909,
      "▁version": 3910,
      "ET": 3911,
      "▁abs": 3912,
      "▁struct": 3913,
      "ogn": 3914,
      "▁below": 3915,
      "ett": 3916,
      "itch": 3917,
      "mp": 3918,
      "▁taking": 3919,
      "used": 3920,
      "When": 3921,
      "pper": 3922,
      "▁norm": 3923,
      "ony": 3924,
      "ification": 3925,
      "ero": 3926,
      "▁aff": 3927,
      "atural": 3928,
      "ding": 3929,
      "▁determ": 3930,
      "init": 3931,
      "▁however": 3932,
      "Tr": 3933,
      "uild": 3934,
      "aj": 3935,
      "▁Med": 3936,
      "▁total": 3937,
      "ried": 3938,
      "▁crit": 3939,
      "▁htt": 3940,
      "▁idea": 3941,
      "▁...": 3942,
      "fo": 3943,
      "ender": 3944,
      "mit": 3945,
      "▁bar": 3946,
      "▁issue": 3947,
      "▁range": 3948,
      "▁half": 3949,
      "ners": 3950,
      "▁jo": 3951,
      "▁neg": 3952,
      "▁significant": 3953,
      "ians": 3954,
      "▁address": 3955,
      "▁phys": 3956,
      "▁dom": 3957,
      "ales": 3958,
      "▁parent": 3959,
      "▁necess": 3960,
      "▁recomm": 3961,
      "▁table": 3962,
      "So": 3963,
      "ights": 3964,
      "▁pur": 3965,
      "log": 3966,
      "▁fall": 3967,
      "▁vi": 3968,
      "ho": 3969,
      "ops": 3970,
      "▁believe": 3971,
      "▁pie": 3972,
      "▁tax": 3973,
      "▁Am": 3974,
      "▁purch": 3975,
      "▁!": 3976,
      "opt": 3977,
      "▁close": 3978,
      "▁clean": 3979,
      "▁Che": 3980,
      "▁er": 3981,
      "▁eff": 3982,
      "fully": 3983,
      "▁character": 3984,
      "▁host": 3985,
      "▁den": 3986,
      "▁front": 3987,
      "▁pick": 3988,
      "▁mais": 3989,
      "▁percent": 3990,
      "▁media": 3991,
      "▁issues": 3992,
      "reet": 3993,
      "▁Intern": 3994,
      "▁watch": 3995,
      "cher": 3996,
      "uel": 3997,
      "▁Not": 3998,
      "fort": 3999,
      "▁features": 4000,
      "▁history": 4001,
      "List": 4002,
      "test": 4003,
      "▁corre": 4004,
      "asing": 4005,
      "▁miss": 4006,
      "▁bad": 4007,
      "▁po": 4008,
      "▁select": 4009,
      "▁lat": 4010,
      "▁ago": 4011,
      "▁cu": 4012,
      "▁hope": 4013,
      "gen": 4014,
      "▁Ass": 4015,
      "▁After": 4016,
      "▁ter": 4017,
      "empt": 4018,
      "ators": 4019,
      "ror": 4020,
      "▁various": 4021,
      "OS": 4022,
      "▁quite": 4023,
      "ided": 4024,
      "▁almost": 4025,
      "ports": 4026,
      "ude": 4027,
      "▁diffic": 4028,
      "▁further": 4029,
      "ogle": 4030,
      "▁represent": 4031,
      "▁Des": 4032,
      "ey": 4033,
      "▁potential": 4034,
      "▁previous": 4035,
      "▁een": 4036,
      "▁energy": 4037,
      "▁action": 4038,
      "rew": 4039,
      "▁girl": 4040,
      "OT": 4041,
      "▁associ": 4042,
      "▁favor": 4043,
      "ura": 4044,
      "Un": 4045,
      "▁relationship": 4046,
      "▁infl": 4047,
      "▁Cal": 4048,
      "ules": 4049,
      "selves": 4050,
      "En": 4051,
      "▁likely": 4052,
      "▁aud": 4053,
      "ancial": 4054,
      "imate": 4055,
      "oud": 4056,
      "▁position": 4057,
      "▁fail": 4058,
      "▁vo": 4059,
      "▁Par": 4060,
      "ias": 4061,
      "HE": 4062,
      "▁cred": 4063,
      "▁near": 4064,
      "▁user": 4065,
      "▁respect": 4066,
      "ION": 4067,
      "where": 4068,
      "onder": 4069,
      "▁cam": 4070,
      "iday": 4071,
      "ground": 4072,
      "▁comput": 4073,
      "▁added": 4074,
      "▁field": 4075,
      "Sh": 4076,
      "▁probably": 4077,
      "▁Pol": 4078,
      "AD": 4079,
      "▁search": 4080,
      "▁CO": 4081,
      "elling": 4082,
      "▁entire": 4083,
      "rown": 4084,
      "ilities": 4085,
      "▁age": 4086,
      "▁Ne": 4087,
      "issue": 4088,
      "▁blog": 4089,
      "▁industry": 4090,
      "resh": 4091,
      "▁dat": 4092,
      "oved": 4093,
      "▁mach": 4094,
      "▁card": 4095,
      "rodu": 4096,
      "▁track": 4097,
      "iff": 4098,
      "▁environment": 4099,
      "span": 4100,
      "De": 4101,
      "▁bed": 4102,
      "▁repl": 4103,
      "▁difficult": 4104,
      "▁everyone": 4105,
      "▁si": 4106,
      "iful": 4107,
      "▁fa": 4108,
      "▁companies": 4109,
      "▁request": 4110,
      "▁required": 4111,
      "▁points": 4112,
      "AP": 4113,
      "▁Dr": 4114,
      "▁extra": 4115,
      "▁needed": 4116,
      "▁wanted": 4117,
      "▁simply": 4118,
      "▁black": 4119,
      "aur": 4120,
      "itted": 4121,
      "aving": 4122,
      "▁anim": 4123,
      "▁dos": 4124,
      "ises": 4125,
      "LL": 4126,
      "▁building": 4127,
      "iting": 4128,
      "atform": 4129,
      "▁isn": 4130,
      "Val": 4131,
      "eks": 4132,
      "▁taken": 4133,
      "chie": 4134,
      "▁pict": 4135,
      "ival": 4136,
      "▁news": 4137,
      "UR": 4138,
      "▁clear": 4139,
      "▁State": 4140,
      "▁Europe": 4141,
      "td": 4142,
      "><": 4143,
      "ões": 4144,
      "▁especially": 4145,
      "gress": 4146,
      "▁similar": 4147,
      "lege": 4148,
      "▁foot": 4149,
      "year": 4150,
      "▁wait": 4151,
      "▁vot": 4152,
      "iple": 4153,
      "▁answ": 4154,
      "▁City": 4155,
      "▁color": 4156,
      "▁via": 4157,
      "cription": 4158,
      "!!": 4159,
      "alt": 4160,
      "ession": 4161,
      "ensive": 4162,
      "▁rather": 4163,
      "▁tou": 4164,
      "▁performance": 4165,
      "acc": 4166,
      "off": 4167,
      "▁impact": 4168,
      "▁indic": 4169,
      "▁base": 4170,
      "▁util": 4171,
      "▁▁▁▁▁▁▁▁▁▁▁": 4172,
      "body": 4173,
      "▁Ed": 4174,
      "met": 4175,
      "▁consum": 4176,
      "▁sens": 4177,
      "▁target": 4178,
      "▁questions": 4179,
      "▁Ab": 4180,
      "▁improve": 4181,
      "▁coming": 4182,
      "▁id": 4183,
      "▁general": 4184,
      "▁popular": 4185,
      "With": 4186,
      "obile": 4187,
      "vol": 4188,
      "▁Pe": 4189,
      "_{": 4190,
      "▁six": 4191,
      "▁asked": 4192,
      "▁changes": 4193,
      "▁fig": 4194,
      "▁estab": 4195,
      "▁role": 4196,
      "ca": 4197,
      "▁Count": 4198,
      "ysis": 4199,
      "epend": 4200,
      "ken": 4201,
      "ager": 4202,
      "▁style": 4203,
      "▁qual": 4204,
      "ief": 4205,
      "astic": 4206,
      "chen": 4207,
      "rs": 4208,
      "▁pretty": 4209,
      "▁strateg": 4210,
      "▁path": 4211,
      "▁effort": 4212,
      "▁dam": 4213,
      "▁nothing": 4214,
      "word": 4215,
      "▁patients": 4216,
      "▁soon": 4217,
      "https": 4218,
      "ension": 4219,
      "▁official": 4220,
      "EC": 4221,
      "▁risk": 4222,
      "▁court": 4223,
      "rict": 4224,
      "▁coll": 4225,
      "▁York": 4226,
      "▁software": 4227,
      "▁grand": 4228,
      "▁)": 4229,
      "▁technology": 4230,
      "umn": 4231,
      "iles": 4232,
      "▁higher": 4233,
      "▁according": 4234,
      "▁clos": 4235,
      "aced": 4236,
      "isc": 4237,
      "ruction": 4238,
      "▁travel": 4239,
      "Le": 4240,
      "▁hor": 4241,
      "iet": 4242,
      "▁string": 4243,
      "▁Im": 4244,
      "▁Tw": 4245,
      "▁rad": 4246,
      "su": 4247,
      "▁Pres": 4248,
      "UT": 4249,
      "▁increase": 4250,
      "▁sat": 4251,
      "istic": 4252,
      "']": 4253,
      "▁third": 4254,
      "▁Em": 4255,
      "come": 4256,
      "ente": 4257,
      ".)": 4258,
      "▁sym": 4259,
      "▁Ge": 4260,
      "▁ré": 4261,
      "▁date": 4262,
      "ese": 4263,
      "▁regard": 4264,
      "order": 4265,
      "roid": 4266,
      "▁mass": 4267,
      "▁link": 4268,
      "▁seems": 4269,
      "aged": 4270,
      "▁options": 4271,
      "ledge": 4272,
      "itting": 4273,
      "medi": 4274,
      "idad": 4275,
      "cy": 4276,
      "▁etc": 4277,
      "▁matter": 4278,
      "▁lay": 4279,
      "etimes": 4280,
      "▁arg": 4281,
      "▁States": 4282,
      "▁assist": 4283,
      "▁Jan": 4284,
      "ING": 4285,
      "ername": 4286,
      "dle": 4287,
      "▁behind": 4288,
      "\");": 4289,
      "▁ways": 4290,
      "ils": 4291,
      "▁het": 4292,
      "nes": 4293,
      "▁continue": 4294,
      "▁created": 4295,
      "▁gra": 4296,
      "ribut": 4297,
      "apt": 4298,
      "▁inside": 4299,
      "▁His": 4300,
      "itten": 4301,
      "vec": 4302,
      "▁ب": 4303,
      "▁complete": 4304,
      "vis": 4305,
      "US": 4306,
      "▁describ": 4307,
      "▁mo": 4308,
      "▁running": 4309,
      "▁World": 4310,
      "aging": 4311,
      "amente": 4312,
      "▁writing": 4313,
      "inter": 4314,
      "▁announ": 4315,
      "}}": 4316,
      "cia": 4317,
      "Data": 4318,
      "▁cook": 4319,
      "▁property": 4320,
      "ador": 4321,
      "▁Per": 4322,
      "Qu": 4323,
      "▁Part": 4324,
      "umb": 4325,
      "▁dire": 4326,
      "ram": 4327,
      "aint": 4328,
      "▁autom": 4329,
      "▁Cor": 4330,
      "▁application": 4331,
      "▁South": 4332,
      "▁death": 4333,
      "▁shows": 4334,
      "anguage": 4335,
      "['": 4336,
      "▁prop": 4337,
      "file": 4338,
      "▁sle": 4339,
      "▁Sun": 4340,
      "▁living": 4341,
      "amed": 4342,
      "▁couple": 4343,
      "list": 4344,
      "▁option": 4345,
      "▁accept": 4346,
      "ged": 4347,
      "inks": 4348,
      "Be": 4349,
      "▁offers": 4350,
      "▁problems": 4351,
      "▁exact": 4352,
      "▁rate": 4353,
      "▁Aust": 4354,
      "itional": 4355,
      "aining": 4356,
      "[@": 4357,
      "ette": 4358,
      "yd": 4359,
      "uge": 4360,
      "▁stop": 4361,
      "▁pers": 4362,
      "▁words": 4363,
      "▁weeks": 4364,
      "la": 4365,
      "▁players": 4366,
      "▁hab": 4367,
      "▁original": 4368,
      "▁ur": 4369,
      "ww": 4370,
      "By": 4371,
      "▁training": 4372,
      "▁Pa": 4373,
      "▁concern": 4374,
      "▁white": 4375,
      "plement": 4376,
      "izing": 4377,
      "▁sort": 4378,
      "▁ten": 4379,
      "....": 4380,
      "Col": 4381,
      "oph": 4382,
      "▁Dep": 4383,
      "▁areas": 4384,
      "mon": 4385,
      "ministr": 4386,
      "▁entre": 4387,
      "idth": 4388,
      "coming": 4389,
      "▁forward": 4390,
      "▁Just": 4391,
      "▁não": 4392,
      "▁natural": 4393,
      "▁subject": 4394,
      "▁recent": 4395,
      "ufact": 4396,
      "ita": 4397,
      "▁match": 4398,
      "▁Bo": 4399,
      "▁provides": 4400,
      "iam": 4401,
      "uth": 4402,
      "print": 4403,
      "▁Bar": 4404,
      "▁imm": 4405,
      "▁takes": 4406,
      "ira": 4407,
      "▁National": 4408,
      "▁usually": 4409,
      "iction": 4410,
      "vo": 4411,
      "No": 4412,
      "▁Mc": 4413,
      "▁yourself": 4414,
      "▁Some": 4415,
      "▁Gl": 4416,
      "▁cannot": 4417,
      "All": 4418,
      "▁events": 4419,
      "cript": 4420,
      "▁Af": 4421,
      "▁provided": 4422,
      "▁beautiful": 4423,
      "▁financial": 4424,
      "atter": 4425,
      "▁war": 4426,
      "▁▁▁▁▁▁▁▁▁▁▁▁▁▁▁▁▁▁▁▁▁▁▁▁": 4427,
      "▁loss": 4428,
      "hib": 4429,
      "▁users": 4430,
      "▁outside": 4431,
      "▁achie": 4432,
      "pen": 4433,
      "ione": 4434,
      "▁longer": 4435,
      "▁document": 4436,
      "overed": 4437,
      "▁treatment": 4438,
      "▁road": 4439,
      "▁Rep": 4440,
      "▁hon": 4441,
      "reed": 4442,
      "icense": 4443,
      "▁By": 4444,
      "▁fire": 4445,
      "▁compl": 4446,
      "▁Our": 4447,
      "▁%": 4448,
      "▁pan": 4449,
      "▁ep": 4450,
      "▁worth": 4451,
      "ication": 4452,
      "▁source": 4453,
      "▁coun": 4454,
      "ocal": 4455,
      "▁word": 4456,
      "www": 4457,
      "▁cases": 4458,
      "rie": 4459,
      "sec": 4460,
      "arth": 4461,
      "ivity": 4462,
      "▁ground": 4463,
      "▁image": 4464,
      "nov": 4465,
      "▁pel": 4466,
      "cast": 4467,
      "uses": 4468,
      "▁customers": 4469,
      "▁ف": 4470,
      "aching": 4471,
      "▁Comp": 4472,
      "▁Will": 4473,
      "▁paper": 4474,
      "▁instead": 4475,
      "▁Sm": 4476,
      "▁esc": 4477,
      "▁phone": 4478,
      "▁fast": 4479,
      "ags": 4480,
      "ging": 4481,
      "▁Your": 4482,
      "serv": 4483,
      "lier": 4484,
      "▁Int": 4485,
      "▁song": 4486,
      "▁box": 4487,
      "▁cause": 4488,
      "ague": 4489,
      "just": 4490,
      "▁North": 4491,
      "rel": 4492,
      "▁Reg": 4493,
      "▁anyone": 4494,
      "▁ו": 4495,
      "▁saw": 4496,
      "ano": 4497,
      "▁accom": 4498,
      "▁management": 4499,
      "▁office": 4500,
      "Is": 4501,
      "ached": 4502,
      "ta": 4503,
      "▁held": 4504,
      "roups": 4505,
      "anced": 4506,
      "▁received": 4507,
      "down": 4508,
      "▁unique": 4509,
      "da": 4510,
      "onse": 4511,
      "▁door": 4512,
      "reate": 4513,
      "atory": 4514,
      "▁dise": 4515,
      "▁collect": 4516,
      "▁aw": 4517,
      "▁store": 4518,
      "▁cover": 4519,
      "idade": 4520,
      "▁recogn": 4521,
      "én": 4522,
      "code": 4523,
      "▁pred": 4524,
      "uk": 4525,
      "iones": 4526,
      "▁platform": 4527,
      "▁Now": 4528,
      "cing": 4529,
      "endo": 4530,
      "My": 4531,
      "using": 4532,
      "ological": 4533,
      "At": 4534,
      "▁prior": 4535,
      "▁upon": 4536,
      "▁fo": 4537,
      "▁security": 4538,
      "▁network": 4539,
      "Im": 4540,
      "▁Val": 4541,
      "▁fix": 4542,
      "bor": 4543,
      "▁ple": 4544,
      "▁email": 4545,
      "▁prec": 4546,
      "username": 4547,
      "▁div": 4548,
      "▁bott": 4549,
      "ste": 4550,
      "▁regular": 4551,
      "ipe": 4552,
      "▁choose": 4553,
      "▁oil": 4554,
      "▁investig": 4555,
      "▁deg": 4556,
      "▁seg": 4557,
      "▁article": 4558,
      "ité": 4559,
      "▁exec": 4560,
      "▁ill": 4561,
      "▁sil": 4562,
      "ui": 4563,
      "▁sn": 4564,
      "▁please": 4565,
      "▁includes": 4566,
      "▁vous": 4567,
      "▁response": 4568,
      "▁ل": 4569,
      "▁engine": 4570,
      "▁production": 4571,
      "▁attack": 4572,
      ";\r": 4573,
      "▁leave": 4574,
      "part": 4575,
      "▁kids": 4576,
      "px": 4577,
      "▁sett": 4578,
      "lebr": 4579,
      "va": 4580,
      "Pl": 4581,
      "▁ball": 4582,
      "ration": 4583,
      "▁party": 4584,
      "▁null": 4585,
      "▁das": 4586,
      "men": 4587,
      "▁$\\": 4588,
      "IL": 4589,
      "▁affect": 4590,
      "▁terms": 4591,
      "ém": 4592,
      "▁lower": 4593,
      "ript": 4594,
      "▁Act": 4595,
      "▁أ": 4596,
      "▁currently": 4597,
      "pack": 4598,
      "inary": 4599,
      "▁staff": 4600,
      "▁introdu": 4601,
      "▁obtain": 4602,
      "▁separ": 4603,
      "▁growth": 4604,
      "▁cy": 4605,
      "▁Don": 4606,
      "ares": 4607,
      "▁ful": 4608,
      "based": 4609,
      "itter": 4610,
      "▁block": 4611,
      "▁brand": 4612,
      "▁systems": 4613,
      "aves": 4614,
      "path": 4615,
      "▁plant": 4616,
      "acher": 4617,
      "light": 4618,
      "▁prem": 4619,
      "IM": 4620,
      "▁late": 4621,
      "▁playing": 4622,
      "Ph": 4623,
      "▁Ag": 4624,
      "hel": 4625,
      "ella": 4626,
      "▁More": 4627,
      "▁town": 4628,
      "ements": 4629,
      "▁Mark": 4630,
      "ffe": 4631,
      "string": 4632,
      "▁bal": 4633,
      "gl": 4634,
      "▁print": 4635,
      "▁IN": 4636,
      "▁viol": 4637,
      "▁additional": 4638,
      "cho": 4639,
      "▁veh": 4640,
      "▁saf": 4641,
      "▁screen": 4642,
      "ader": 4643,
      "▁comfort": 4644,
      "▁sense": 4645,
      "▁error": 4646,
      "box": 4647,
      "hold": 4648,
      "urance": 4649,
      "aker": 4650,
      "▁ready": 4651,
      "▁pod": 4652,
      "▁conditions": 4653,
      "/**": 4654,
      "▁ear": 4655,
      "ceed": 4656,
      "oe": 4657,
      "param": 4658,
      "▁private": 4659,
      "▁weight": 4660,
      "▁decision": 4661,
      "▁hit": 4662,
      "▁contract": 4663,
      "($": 4664,
      "▁wonder": 4665,
      "aily": 4666,
      "▁integr": 4667,
      "▁School": 4668,
      "Get": 4669,
      "ية": 4670,
      "▁expected": 4671,
      "▁details": 4672,
      "▁mother": 4673,
      "▁void": 4674,
      "earch": 4675,
      "▁mag": 4676,
      "fficient": 4677,
      "▁deep": 4678,
      "idge": 4679,
      "ét": 4680,
      "▁lives": 4681,
      "▁download": 4682,
      "mb": 4683,
      "▁Oct": 4684,
      "clude": 4685,
      "ham": 4686,
      "value": 4687,
      "▁Mon": 4688,
      "▁reading": 4689,
      "▁circ": 4690,
      "EM": 4691,
      "])": 4692,
      "html": 4693,
      "▁itself": 4694,
      "▁levels": 4695,
      "▁experien": 4696,
      "▁wasn": 4697,
      "App": 4698,
      "ube": 4699,
      "▁recently": 4700,
      "▁Aug": 4701,
      "///": 4702,
      "nder": 4703,
      "hood": 4704,
      "CO": 4705,
      "arter": 4706,
      "▁quickly": 4707,
      "math": 4708,
      "▁false": 4709,
      "sy": 4710,
      "▁morning": 4711,
      "▁swe": 4712,
      "▁former": 4713,
      "▁looks": 4714,
      "ات": 4715,
      "▁cand": 4716,
      "icles": 4717,
      "▁prep": 4718,
      "▁throughout": 4719,
      "but": 4720,
      "wise": 4721,
      "▁included": 4722,
      "▁myself": 4723,
      "▁types": 4724,
      "▁woman": 4725,
      "ria": 4726,
      "▁blood": 4727,
      "▁member": 4728,
      "▁Apr": 4729,
      "▁mix": 4730,
      "ocr": 4731,
      "uit": 4732,
      "ges": 4733,
      "▁lost": 4734,
      "▁reported": 4735,
      "▁professional": 4736,
      "ospital": 4737,
      "▁jud": 4738,
      "▁employe": 4739,
      "▁Sch": 4740,
      "▁avec": 4741,
      "▁fund": 4742,
      "▁national": 4743,
      "../": 4744,
      "uary": 4745,
      "mente": 4746,
      "View": 4747,
      "▁sam": 4748,
      "▁While": 4749,
      "Ob": 4750,
      "uments": 4751,
      "▁fit": 4752,
      "▁mention": 4753,
      "ga": 4754,
      "Mod": 4755,
      "▁AN": 4756,
      "▁themselves": 4757,
      "▁heav": 4758,
      "▁designed": 4759,
      "▁propos": 4760,
      "unk": 4761,
      "ivo": 4762,
      "▁write": 4763,
      "ressed": 4764,
      "▁ع": 4765,
      "▁fem": 4766,
      "▁Aut": 4767,
      "▁ein": 4768,
      "▁nice": 4769,
      "▁message": 4770,
      "user": 4771,
      "▁knowledge": 4772,
      "▁implement": 4773,
      "▁Ser": 4774,
      "▁happy": 4775,
      "▁Then": 4776,
      "Er": 4777,
      "▁global": 4778,
      "▁tal": 4779,
      "adas": 4780,
      "▁Park": 4781,
      "ming": 4782,
      "▁round": 4783,
      "▁dru": 4784,
      "▁drive": 4785,
      "▁attempt": 4786,
      "odes": 4787,
      "▁…": 4788,
      "bb": 4789,
      "▁tour": 4790,
      "▁Add": 4791,
      "ENT": 4792,
      "ris": 4793,
      "▁standard": 4794,
      "▁ones": 4795,
      "▁perm": 4796,
      "▁manufact": 4797,
      "){": 4798,
      "▁hol": 4799,
      "ental": 4800,
      "igned": 4801,
      "▁rout": 4802,
      "▁appe": 4803,
      "▁cat": 4804,
      "▁President": 4805,
      "▁prevent": 4806,
      "ening": 4807,
      "▁stri": 4808,
      "▁release": 4809,
      "▁stra": 4810,
      "▁ability": 4811,
      "▁America": 4812,
      "▁learning": 4813,
      "▁equip": 4814,
      "▁felt": 4815,
      "▁wrong": 4816,
      "▁March": 4817,
      "Des": 4818,
      "ario": 4819,
      "pose": 4820,
      "▁easily": 4821,
      "▁opportunity": 4822,
      "iques": 4823,
      "dom": 4824,
      "▁West": 4825,
      "board": 4826,
      "oper": 4827,
      "anger": 4828,
      "ras": 4829,
      "▁▁▁▁▁▁▁▁▁▁▁▁▁▁": 4830,
      "▁الم": 4831,
      "▁approach": 4832,
      "▁wall": 4833,
      "▁mas": 4834,
      "▁items": 4835,
      "umber": 4836,
      "ober": 4837,
      "▁ri": 4838,
      "mo": 4839,
      "ederal": 4840,
      "cil": 4841,
      "oring": 4842,
      "rc": 4843,
      "AB": 4844,
      "▁Dav": 4845,
      "▁chance": 4846,
      "pec": 4847,
      "▁ensure": 4848,
      "▁average": 4849,
      "▁decided": 4850,
      "zz": 4851,
      "▁draw": 4852,
      "mas": 4853,
      "========": 4854,
      "▁amaz": 4855,
      "▁began": 4856,
      "▁bir": 4857,
      "})": 4858,
      "▁Dis": 4859,
      "ça": 4860,
      "▁Red": 4861,
      "▁related": 4862,
      "lick": 4863,
      "lying": 4864,
      "▁worked": 4865,
      "▁maintain": 4866,
      "▁safe": 4867,
      "ading": 4868,
      "▁books": 4869,
      "iro": 4870,
      "cur": 4871,
      "▁Je": 4872,
      "▁County": 4873,
      "▁TV": 4874,
      "▁multiple": 4875,
      "pir": 4876,
      "▁Cour": 4877,
      "bt": 4878,
      "▁ت": 4879,
      "asons": 4880,
      "▁hair": 4881,
      "▁became": 4882,
      "ções": 4883,
      "▁decl": 4884,
      "▁built": 4885,
      "▁hands": 4886,
      "bol": 4887,
      "▁cool": 4888,
      "▁location": 4889,
      "▁choice": 4890,
      "▁inj": 4891,
      "▁display": 4892,
      "from": 4893,
      "tes": 4894,
      "▁board": 4895,
      "sequ": 4896,
      "▁inde": 4897,
      "augh": 4898,
      "▁wel": 4899,
      "▁San": 4900,
      "haps": 4901,
      "▁bi": 4902,
      "rences": 4903,
      "▁normal": 4904,
      "▁education": 4905,
      "▁device": 4906,
      "▁driv": 4907,
      "▁analysis": 4908,
      "▁Sept": 4909,
      "http": 4910,
      "reng": 4911,
      "▁president": 4912,
      "▁nos": 4913,
      "pa": 4914,
      "▁solution": 4915,
      "▁mis": 4916,
      "▁celebr": 4917,
      "CT": 4918,
      "▁goes": 4919,
      "aign": 4920,
      "private": 4921,
      "▁sou": 4922,
      "▁goal": 4923,
      "▁System": 4924,
      "▁dro": 4925,
      "▁medical": 4926,
      "ties": 4927,
      "▁practice": 4928,
      "One": 4929,
      "▁pet": 4930,
      "▁avoid": 4931,
      "lim": 4932,
      "size": 4933,
      "▁Stud": 4934,
      "error": 4935,
      "▁Fin": 4936,
      "▁remember": 4937,
      "▁Get": 4938,
      "raz": 4939,
      "▁groups": 4940,
      "▁initial": 4941,
      "ribute": 4942,
      "empl": 4943,
      "EL": 4944,
      "▁surpr": 4945,
      "uration": 4946,
      "▁June": 4947,
      "▁Mr": 4948,
      "▁más": 4949,
      "▁recommend": 4950,
      "emic": 4951,
      "▁pull": 4952,
      "like": 4953,
      "atives": 4954,
      "La": 4955,
      "illing": 4956,
      "▁title": 4957,
      "▁mes": 4958,
      "▁speed": 4959,
      "▁Sec": 4960,
      "▁immedi": 4961,
      "▁cross": 4962,
      "▁leaders": 4963,
      "idered": 4964,
      "▁answer": 4965,
      "▁challeng": 4966,
      "▁consist": 4967,
      "▁eyes": 4968,
      "That": 4969,
      "▁Sw": 4970,
      "▁allows": 4971,
      "▁Ant": 4972,
      "▁boy": 4973,
      "▁Of": 4974,
      "▁Est": 4975,
      "▁parents": 4976,
      "▁influ": 4977,
      "▁sales": 4978,
      "▁Here": 4979,
      "bar": 4980,
      "orks": 4981,
      "▁tele": 4982,
      "▁sche": 4983,
      "▁High": 4984,
      "▁Gener": 4985,
      "▁bank": 4986,
      "▁client": 4987,
      "▁Ob": 4988,
      "airs": 4989,
      "aby": 4990,
      "▁Wind": 4991,
      "▁receive": 4992,
      "▁China": 4993,
      "▁latest": 4994,
      "UN": 4995,
      "AG": 4996,
      "▁skin": 4997,
      "▁imag": 4998,
      "▁protect": 4999,
      "▁Pat": 5000,
      "ère": 5001,
      "▁minim": 5002,
      "></": 5003,
      "▁Har": 5004,
      "▁serious": 5005,
      "▁credit": 5006,
      "▁situation": 5007,
      "▁language": 5008,
      "}$": 5009,
      "Not": 5010,
      "********": 5011,
      "▁feed": 5012,
      "▁sites": 5013,
      "____": 5014,
      "▁correct": 5015,
      "▁save": 5016,
      "▁behav": 5017,
      "ociety": 5018,
      "IP": 5019,
      "▁written": 5020,
      "▁involved": 5021,
      "▁convers": 5022,
      "urg": 5023,
      "aches": 5024,
      "▁fight": 5025,
      "▁career": 5026,
      "atus": 5027,
      "bum": 5028,
      "▁countries": 5029,
      "ista": 5030,
      "▁gets": 5031,
      "▁tried": 5032,
      "gar": 5033,
      "▁attention": 5034,
      "des": 5035,
      "▁Acc": 5036,
      "chan": 5037,
      "▁grad": 5038,
      "▁charg": 5039,
      "quest": 5040,
      "▁demand": 5041,
      "▁completely": 5042,
      "▁digital": 5043,
      "net": 5044,
      "vant": 5045,
      "▁flow": 5046,
      "IG": 5047,
      "▁policy": 5048,
      "▁positive": 5049,
      "▁sell": 5050,
      "orage": 5051,
      "▁roll": 5052,
      "▁computer": 5053,
      "lin": 5054,
      "▁necessary": 5055,
      "▁reve": 5056,
      "▁band": 5057,
      "▁War": 5058,
      "▁subst": 5059,
      "urt": 5060,
      "▁modern": 5061,
      "ester": 5062,
      "/*": 5063,
      "ora": 5064,
      "▁parts": 5065,
      "elle": 5066,
      "▁af": 5067,
      "▁comment": 5068,
      "▁click": 5069,
      "▁Art": 5070,
      "with": 5071,
      "▁complex": 5072,
      "▁Brit": 5073,
      "comes": 5074,
      "ny": 5075,
      "ocks": 5076,
      "▁compon": 5077,
      "▁cells": 5078,
      "icip": 5079,
      "▁played": 5080,
      "band": 5081,
      "▁Austral": 5082,
      "▁considered": 5083,
      "verse": 5084,
      "▁vict": 5085,
      "ocol": 5086,
      "▁values": 5087,
      "▁Ke": 5088,
      "pite": 5089,
      "SE": 5090,
      "▁gave": 5091,
      "▁Black": 5092,
      "▁nature": 5093,
      "js": 5094,
      "comment": 5095,
      "Or": 5096,
      "▁center": 5097,
      "▁player": 5098,
      "agement": 5099,
      "▁police": 5100,
      "▁squ": 5101,
      "hern": 5102,
      "Add": 5103,
      "acing": 5104,
      "▁April": 5105,
      "ibly": 5106,
      "amento": 5107,
      "apan": 5108,
      "▁sun": 5109,
      "rought": 5110,
      "initely": 5111,
      "After": 5112,
      "\";": 5113,
      "▁Google": 5114,
      "oto": 5115,
      "▁contr": 5116,
      "▁activities": 5117,
      "ran": 5118,
      "ja": 5119,
      "▁House": 5120,
      "▁ע": 5121,
      "Int": 5122,
      "fil": 5123,
      "more": 5124,
      "ournal": 5125,
      "amos": 5126,
      "▁effective": 5127,
      "``": 5128,
      "▁Her": 5129,
      "▁located": 5130,
      "▁international": 5131,
      "▁section": 5132,
      "ashing": 5133,
      "irit": 5134,
      "top": 5135,
      "ès": 5136,
      "▁static": 5137,
      "▁slow": 5138,
      "itation": 5139,
      "oke": 5140,
      "▁ing": 5141,
      "▁Sim": 5142,
      "▁Ang": 5143,
      "▁thinking": 5144,
      "icht": 5145,
      "▁certainly": 5146,
      "ula": 5147,
      "▁released": 5148,
      "▁saying": 5149,
      "▁summer": 5150,
      "▁frequ": 5151,
      "▁altern": 5152,
      "▁Russ": 5153,
      "Ab": 5154,
      "attle": 5155,
      "rio": 5156,
      "▁knew": 5157,
      "▁Us": 5158,
      "jo": 5159,
      "▁legal": 5160,
      "▁emb": 5161,
      "▁throw": 5162,
      "▁feature": 5163,
      "▁internet": 5164,
      "▁Tra": 5165,
      "iding": 5166,
      "ena": 5167,
      "▁political": 5168,
      "field": 5169,
      "▁dark": 5170,
      "itar": 5171,
      "mar": 5172,
      "▁copy": 5173,
      "▁Afric": 5174,
      "▁lib": 5175,
      "CH": 5176,
      "▁July": 5177,
      "▁meeting": 5178,
      "▁huge": 5179,
      "Sc": 5180,
      "▁bon": 5181,
      "▁effects": 5182,
      "▁ir": 5183,
      "▁temper": 5184,
      "▁**": 5185,
      "\\]": 5186,
      "ibrary": 5187,
      "▁park": 5188,
      "▁essential": 5189,
      "▁connect": 5190,
      "▁bud": 5191,
      "ecause": 5192,
      "▁Day": 5193,
      "▁gar": 5194,
      "▁looked": 5195,
      "▁continu": 5196,
      "formation": 5197,
      "enty": 5198,
      "gy": 5199,
      "▁gives": 5200,
      "▁commit": 5201,
      "▁gam": 5202,
      "Value": 5203,
      "▁observ": 5204,
      "▁machine": 5205,
      "▁trou": 5206,
      "uch": 5207,
      "apter": 5208,
      "erve": 5209,
      "▁sold": 5210,
      "▁Mus": 5211,
      "▁states": 5212,
      "▁club": 5213,
      "ان": 5214,
      "▁Off": 5215,
      "cover": 5216,
      "▁upd": 5217,
      "▁stru": 5218,
      "▁variety": 5219,
      "▁restaur": 5220,
      "▁Germ": 5221,
      "▁favorite": 5222,
      "▁hear": 5223,
      "zon": 5224,
      "mark": 5225,
      "alu": 5226,
      "New": 5227,
      "▁leading": 5228,
      "▁fair": 5229,
      "▁activity": 5230,
      "▁individuals": 5231,
      "▁excell": 5232,
      "▁himself": 5233,
      "▁cry": 5234,
      "▁Net": 5235,
      "▁capt": 5236,
      "▁sleep": 5237,
      "iers": 5238,
      "▁led": 5239,
      "▁touch": 5240,
      "▁From": 5241,
      "▁histor": 5242,
      "▁interesting": 5243,
      "ences": 5244,
      "▁Face": 5245,
      "▁plans": 5246,
      "▁trust": 5247,
      "];": 5248,
      "▁alg": 5249,
      "icon": 5250,
      "▁India": 5251,
      "▁evidence": 5252,
      "▁rights": 5253,
      "▁movie": 5254,
      "▁conv": 5255,
      "function": 5256,
      "change": 5257,
      "▁starting": 5258,
      "aling": 5259,
      "▁heard": 5260,
      "▁sho": 5261,
      "▁father": 5262,
      "▁wide": 5263,
      "eta": 5264,
      "rim": 5265,
      "▁speak": 5266,
      "Ind": 5267,
      "▁Center": 5268,
      "cember": 5269,
      "▁sometimes": 5270,
      "point": 5271,
      "mes": 5272,
      "▁mill": 5273,
      "tre": 5274,
      "▁Health": 5275,
      "▁condition": 5276,
      "comp": 5277,
      "anch": 5278,
      "▁turned": 5279,
      "▁princ": 5280,
      "place": 5281,
      "▁customer": 5282,
      "▁towards": 5283,
      "▁enter": 5284,
      "▁fine": 5285,
      "▁streng": 5286,
      "mary": 5287,
      "sub": 5288,
      "▁directly": 5289,
      "▁config": 5290,
      "▁Port": 5291,
      "▁costs": 5292,
      "▁exactly": 5293,
      "▁gold": 5294,
      "▁fresh": 5295,
      "ovember": 5296,
      "▁arriv": 5297,
      "▁acqu": 5298,
      "ribution": 5299,
      "▁arch": 5300,
      "▁benefits": 5301,
      "▁Mod": 5302,
      "▁August": 5303,
      "ky": 5304,
      "▁mess": 5305,
      "▁region": 5306,
      "oms": 5307,
      "▁UK": 5308,
      "ponse": 5309,
      "▁amazing": 5310,
      "ields": 5311,
      "▁stuff": 5312,
      "▁projects": 5313,
      "▁earn": 5314,
      "▁lack": 5315,
      "▁▁▁▁▁": 5316,
      "isf": 5317,
      "She": 5318,
      "king": 5319,
      "▁Bro": 5320,
      "▁href": 5321,
      "ebru": 5322,
      "▁Cons": 5323,
      "▁Pre": 5324,
      "▁send": 5325,
      "));": 5326,
      "pri": 5327,
      "PS": 5328,
      "▁English": 5329,
      "ici": 5330,
      "gest": 5331,
      "▁Hol": 5332,
      "enge": 5333,
      "▁mobile": 5334,
      "▁stock": 5335,
      "▁famil": 5336,
      "▁student": 5337,
      "itary": 5338,
      "ternal": 5339,
      "▁campaign": 5340,
      "aught": 5341,
      "oo": 5342,
      "▁administr": 5343,
      "▁shown": 5344,
      "▁marketing": 5345,
      "▁ideas": 5346,
      "▁organiz": 5347,
      "▁contain": 5348,
      "wood": 5349,
      "▁resol": 5350,
      "rote": 5351,
      "▁associated": 5352,
      "bit": 5353,
      "dis": 5354,
      "▁concept": 5355,
      "bon": 5356,
      "▁emp": 5357,
      "▁está": 5358,
      "▁September": 5359,
      "▁January": 5360,
      "lied": 5361,
      "annel": 5362,
      "uest": 5363,
      "ald": 5364,
      "▁giving": 5365,
      "▁Mich": 5366,
      "▁physical": 5367,
      "cel": 5368,
      "▁collection": 5369,
      "▁!=": 5370,
      "▁dead": 5371,
      "case": 5372,
      "DE": 5373,
      "▁difference": 5374,
      "');": 5375,
      "itution": 5376,
      "▁tas": 5377,
      "gn": 5378,
      "▁ded": 5379,
      "▁encour": 5380,
      "▁Inc": 5381,
      "▁org": 5382,
      "Do": 5383,
      "▁Char": 5384,
      "vey": 5385,
      "aled": 5386,
      "ellow": 5387,
      "omb": 5388,
      "▁safety": 5389,
      "▁regul": 5390,
      "▁Friday": 5391,
      "▁occur": 5392,
      "iant": 5393,
      "▁maybe": 5394,
      "▁green": 5395,
      "ua": 5396,
      "▁skills": 5397,
      "asc": 5398,
      "▁demon": 5399,
      "▁load": 5400,
      "▁finally": 5401,
      "▁increased": 5402,
      "';": 5403,
      "ayer": 5404,
      "▁THE": 5405,
      "▁emerg": 5406,
      "▁ang": 5407,
      "▁Air": 5408,
      "tic": 5409,
      "▁neigh": 5410,
      "▁في": 5411,
      "pm": 5412,
      "IV": 5413,
      "ago": 5414,
      "▁absol": 5415,
      "iva": 5416,
      "ار": 5417,
      "▁developed": 5418,
      "ishing": 5419,
      "Par": 5420,
      "▁sch": 5421,
      "▁pen": 5422,
      "soft": 5423,
      "omen": 5424,
      "Man": 5425,
      "▁categ": 5426,
      "eters": 5427,
      "El": 5428,
      "orge": 5429,
      "▁feeling": 5430,
      "^{": 5431,
      "▁tod": 5432,
      "▁stage": 5433,
      "().": 5434,
      "▁Ac": 5435,
      "▁star": 5436,
      "uy": 5437,
      "▁files": 5438,
      "arily": 5439,
      "ור": 5440,
      "▁highly": 5441,
      "▁resources": 5442,
      "▁actual": 5443,
      "▁October": 5444,
      "CR": 5445,
      "▁Let": 5446,
      "void": 5447,
      "▁כ": 5448,
      "vest": 5449,
      "▁fat": 5450,
      "▁King": 5451,
      "▁definitely": 5452,
      "▁AP": 5453,
      "▁daily": 5454,
      "ithub": 5455,
      "▁adult": 5456,
      "ville": 5457,
      "File": 5458,
      "nown": 5459,
      "▁kit": 5460,
      "ini": 5461,
      "▁II": 5462,
      "▁reach": 5463,
      "▁purchase": 5464,
      "▁detail": 5465,
      "OL": 5466,
      "▁sen": 5467,
      "itude": 5468,
      "▁tools": 5469,
      "▁gas": 5470,
      "▁places": 5471,
      "itable": 5472,
      "▁compared": 5473,
      "▁advant": 5474,
      "aries": 5475,
      "▁programs": 5476,
      "▁published": 5477,
      "▁brought": 5478,
      "▁dete": 5479,
      "inst": 5480,
      "▁secret": 5481,
      "▁Japan": 5482,
      "▁piece": 5483,
      "▁pressure": 5484,
      "ondon": 5485,
      "▁aware": 5486,
      "▁firm": 5487,
      "Set": 5488,
      "▁sy": 5489,
      "▁respond": 5490,
      "▁sav": 5491,
      "▁mount": 5492,
      "▁progress": 5493,
      "▁ao": 5494,
      "▁teacher": 5495,
      "▁double": 5496,
      "▁studies": 5497,
      "ests": 5498,
      "md": 5499,
      "pace": 5500,
      "inn": 5501,
      "ên": 5502,
      "▁exerc": 5503,
      "▁limited": 5504,
      "resp": 5505,
      "idents": 5506,
      "iforn": 5507,
      "▁pattern": 5508,
      "Bl": 5509,
      "▁capac": 5510,
      "doc": 5511,
      "▁note": 5512,
      "ür": 5513,
      "ened": 5514,
      "ancy": 5515,
      "▁String": 5516,
      "▁lif": 5517,
      "▁sobre": 5518,
      "▁uses": 5519,
      "Error": 5520,
      "andom": 5521,
      "▁cert": 5522,
      "▁promot": 5523,
      "▁Paul": 5524,
      "sum": 5525,
      "▁stream": 5526,
      "▁disease": 5527,
      "py": 5528,
      "▁independ": 5529,
      "aturday": 5530,
      "▁structure": 5531,
      "▁hour": 5532,
      "oad": 5533,
      "▁culture": 5534,
      "▁extrem": 5535,
      "▁length": 5536,
      "inner": 5537,
      "yond": 5538,
      "istry": 5539,
      "▁este": 5540,
      "▁interview": 5541,
      "});": 5542,
      "▁priv": 5543,
      "▁shall": 5544,
      "▁quant": 5545,
      "include": 5546,
      "ounds": 5547,
      "▁November": 5548,
      "Object": 5549,
      "▁hop": 5550,
      "They": 5551,
      "▁candid": 5552,
      "bal": 5553,
      "▁http": 5554,
      "izes": 5555,
      "▁aim": 5556,
      "▁limit": 5557,
      "▁Out": 5558,
      "▁nom": 5559,
      "▁commer": 5560,
      "NA": 5561,
      "▁helps": 5562,
      "▁First": 5563,
      "▁mit": 5564,
      "▁economic": 5565,
      "reci": 5566,
      "pport": 5567,
      "▁eat": 5568,
      "antly": 5569,
      "▁carry": 5570,
      "▁capital": 5571,
      "▁December": 5572,
      "```": 5573,
      "ivil": 5574,
      "IR": 5575,
      "▁ét": 5576,
      "▁Court": 5577,
      "ete": 5578,
      "▁nation": 5579,
      "éd": 5580,
      "▁dream": 5581,
      "inated": 5582,
      "▁fully": 5583,
      "▁warm": 5584,
      "▁Trans": 5585,
      "▁tend": 5586,
      "Text": 5587,
      "▁pu": 5588,
      "▁active": 5589,
      "▁https": 5590,
      "▁virt": 5591,
      "▁Facebook": 5592,
      "icks": 5593,
      "aly": 5594,
      "vision": 5595,
      "▁images": 5596,
      "▁announced": 5597,
      "rend": 5598,
      "▁micro": 5599,
      "▁changed": 5600,
      "▁numbers": 5601,
      "ael": 5602,
      "hr": 5603,
      "▁emot": 5604,
      "▁frame": 5605,
      "▁bur": 5606,
      "hand": 5607,
      "▁evalu": 5608,
      "EO": 5609,
      "rite": 5610,
      "▁beginning": 5611,
      "bert": 5612,
      "ography": 5613,
      "▁earlier": 5614,
      "▁straight": 5615,
      "▁excellent": 5616,
      "▁Every": 5617,
      "▁moving": 5618,
      "▁charge": 5619,
      "see": 5620,
      "▁tim": 5621,
      "▁spent": 5622,
      "ende": 5623,
      "iced": 5624,
      "▁Jes": 5625,
      "▁although": 5626,
      "istics": 5627,
      "▁clients": 5628,
      "▁Even": 5629,
      "▁item": 5630,
      "oken": 5631,
      "amic": 5632,
      "▁spend": 5633,
      "sych": 5634,
      "▁mi": 5635,
      "▁creating": 5636,
      "BC": 5637,
      "ées": 5638,
      "ifornia": 5639,
      "▁Fe": 5640,
      "▁wish": 5641,
      "▁assess": 5642,
      "▁trip": 5643,
      "▁IS": 5644,
      "▁status": 5645,
      "oon": 5646,
      "▁Also": 5647,
      "etic": 5648,
      "▁من": 5649,
      "irus": 5650,
      "▁surv": 5651,
      "▁dog": 5652,
      "▁adm": 5653,
      "▁wants": 5654,
      "ני": 5655,
      "▁Er": 5656,
      "mail": 5657,
      "▁OF": 5658,
      "illa": 5659,
      "▁voor": 5660,
      "▁liter": 5661,
      "▁achieve": 5662,
      "▁sale": 5663,
      "onday": 5664,
      "▁Sen": 5665,
      "▁growing": 5666,
      "▁proced": 5667,
      "▁allowed": 5668,
      "▁wood": 5669,
      "▁Direct": 5670,
      "rench": 5671,
      "▁lines": 5672,
      "▁album": 5673,
      "▁Department": 5674,
      "github": 5675,
      "▁models": 5676,
      "▁measure": 5677,
      "▁Dem": 5678,
      "▁Most": 5679,
      "▁mal": 5680,
      "▁photos": 5681,
      "utive": 5682,
      "▁heat": 5683,
      "uer": 5684,
      "isions": 5685,
      "mm": 5686,
      "▁alone": 5687,
      "iger": 5688,
      "▁force": 5689,
      "▁cru": 5690,
      "isation": 5691,
      "▁statement": 5692,
      "▁successful": 5693,
      "ously": 5694,
      "atever": 5695,
      "▁param": 5696,
      "index": 5697,
      "▁;": 5698,
      "inate": 5699,
      "Exception": 5700,
      "▁threat": 5701,
      "▁smart": 5702,
      "▁couldn": 5703,
      "▁»": 5704,
      "▁ord": 5705,
      "Over": 5706,
      "▁particularly": 5707,
      "▁partners": 5708,
      "▁methods": 5709,
      "▁prices": 5710,
      "▁jour": 5711,
      "rial": 5712,
      "▁clin": 5713,
      "▁aspect": 5714,
      "ban": 5715,
      "▁transport": 5716,
      "▁organization": 5717,
      "VID": 5718,
      "hol": 5719,
      "CC": 5720,
      "lete": 5721,
      "ady": 5722,
      "▁surface": 5723,
      "▁increasing": 5724,
      "▁floor": 5725,
      "abase": 5726,
      "▁wat": 5727,
      "▁arr": 5728,
      "▁Pal": 5729,
      "▁Sunday": 5730,
      "▁eight": 5731,
      "▁wife": 5732,
      "▁picture": 5733,
      "rief": 5734,
      "};": 5735,
      "▁middle": 5736,
      "▁stories": 5737,
      "▁providing": 5738,
      "▁input": 5739,
      "Time": 5740,
      "tee": 5741,
      "hest": 5742,
      "Our": 5743,
      "▁names": 5744,
      "▁Ma": 5745,
      "ocation": 5746,
      "▁paid": 5747,
      "▁element": 5748,
      "▁understanding": 5749,
      "▁«": 5750,
      "▁relig": 5751,
      "rer": 5752,
      "aux": 5753,
      "▁cash": 5754,
      "ruit": 5755,
      "acters": 5756,
      "▁default": 5757,
      "itute": 5758,
      "▁demonstr": 5759,
      "▁update": 5760,
      "▁transfer": 5761,
      "▁population": 5762,
      "▁nut": 5763,
      "▁birth": 5764,
      "Su": 5765,
      "inding": 5766,
      "▁rock": 5767,
      "amm": 5768,
      "start": 5769,
      "▁optim": 5770,
      "▁meaning": 5771,
      "OM": 5772,
      "Now": 5773,
      "arden": 5774,
      "▁nearly": 5775,
      "▁talking": 5776,
      "▁remain": 5777,
      "▁expos": 5778,
      "▁▁▁▁▁▁▁▁▁▁▁▁▁▁▁▁▁▁▁▁▁▁▁▁▁▁▁▁": 5779,
      "estern": 5780,
      "ebruary": 5781,
      "▁International": 5782,
      "equ": 5783,
      "▁equipment": 5784,
      "▁enh": 5785,
      "▁tamb": 5786,
      "left": 5787,
      "Test": 5788,
      "vi": 5789,
      "▁innov": 5790,
      "fered": 5791,
      "ima": 5792,
      "▁race": 5793,
      "▁hous": 5794,
      "▁ult": 5795,
      "lation": 5796,
      "wide": 5797,
      "pan": 5798,
      "▁London": 5799,
      "▁prefer": 5800,
      "▁command": 5801,
      "▁dur": 5802,
      "encies": 5803,
      "':": 5804,
      "▁tout": 5805,
      "ba": 5806,
      "jet": 5807,
      "▁materials": 5808,
      "OD": 5809,
      "▁Windows": 5810,
      "Acc": 5811,
      "From": 5812,
      "ford": 5813,
      "▁overall": 5814,
      "table": 5815,
      "▁expert": 5816,
      "▁happened": 5817,
      "▁Sol": 5818,
      "▁traditional": 5819,
      "▁satisf": 5820,
      "rive": 5821,
      "zen": 5822,
      "cal": 5823,
      "▁opin": 5824,
      "▁Super": 5825,
      "▁Saturday": 5826,
      "▁stress": 5827,
      "oday": 5828,
      "undred": 5829,
      "▁refer": 5830,
      "▁insurance": 5831,
      "▁moved": 5832,
      "▁Associ": 5833,
      "▁feet": 5834,
      "▁server": 5835,
      "▁teams": 5836,
      "▁interested": 5837,
      "▁mechan": 5838,
      "aughter": 5839,
      "▁casino": 5840,
      "ync": 5841,
      "▁apply": 5842,
      "term": 5843,
      "▁Cr": 5844,
      "▁devices": 5845,
      "SP": 5846,
      "Key": 5847,
      "▁rent": 5848,
      "▁purpose": 5849,
      "▁healthy": 5850,
      "▁Coun": 5851,
      "▁David": 5852,
      "▁applications": 5853,
      "config": 5854,
      "▁Are": 5855,
      "iance": 5856,
      "▁spot": 5857,
      "▁instance": 5858,
      "▁context": 5859,
      "atively": 5860,
      "MP": 5861,
      "mat": 5862,
      "duc": 5863,
      "▁employees": 5864,
      "agon": 5865,
      "ributed": 5866,
      "▁basic": 5867,
      "▁billion": 5868,
      "▁hospital": 5869,
      "▁ST": 5870,
      "▁doll": 5871,
      "▁California": 5872,
      "▁college": 5873,
      "▁agre": 5874,
      "▁Mor": 5875,
      "▁rules": 5876,
      "▁tick": 5877,
      "▁thous": 5878,
      "▁dim": 5879,
      ".'": 5880,
      "▁Wed": 5881,
      "▁fans": 5882,
      "▁immediately": 5883,
      "####": 5884,
      "++": 5885,
      "▁License": 5886,
      "▁Mac": 5887,
      "▁cit": 5888,
      "▁maxim": 5889,
      "▁appropri": 5890,
      "▁rates": 5891,
      "▁numer": 5892,
      "▁\\[": 5893,
      "▁voc": 5894,
      "▁drink": 5895,
      "MS": 5896,
      "▁trade": 5897,
      "▁greater": 5898,
      "▁Free": 5899,
      "▁weekend": 5900,
      "▁Jack": 5901,
      "rupt": 5902,
      "iring": 5903,
      "rm": 5904,
      "ige": 5905,
      "iny": 5906,
      "▁See": 5907,
      "▁strugg": 5908,
      "ronic": 5909,
      "▁setting": 5910,
      "▁reasons": 5911,
      "▁beyond": 5912,
      "▁cancer": 5913,
      "▁pal": 5914,
      "▁valid": 5915,
      "▁array": 5916,
      "▁eye": 5917,
      "roller": 5918,
      "ls": 5919,
      "▁assert": 5920,
      "▁reduce": 5921,
      "▁connection": 5922,
      "▁train": 5923,
      "▁Monday": 5924,
      "▁Govern": 5925,
      "▁followed": 5926,
      "lor": 5927,
      "label": 5928,
      "▁aren": 5929,
      "▁shot": 5930,
      "ين": 5931,
      "venue": 5932,
      "▁map": 5933,
      "▁fant": 5934,
      "▁broad": 5935,
      "▁?": 5936,
      "force": 5937,
      "▁dry": 5938,
      "perty": 5939,
      "].": 5940,
      "▁Group": 5941,
      "▁basis": 5942,
      "▁notice": 5943,
      "▁primary": 5944,
      "▁whose": 5945,
      "olf": 5946,
      "▁supply": 5947,
      "LO": 5948,
      "▁wrote": 5949,
      "▁farm": 5950,
      "▁unit": 5951,
      "▁shoot": 5952,
      "▁hus": 5953,
      "▁Post": 5954,
      "▁planning": 5955,
      "▁investment": 5956,
      "Of": 5957,
      "▁Del": 5958,
      "enses": 5959,
      "▁Street": 5960,
      "▁Up": 5961,
      "▁cast": 5962,
      "▁&&": 5963,
      "▁Indian": 5964,
      "▁fear": 5965,
      "▁loved": 5966,
      "icrosoft": 5967,
      "▁easier": 5968,
      "▁commercial": 5969,
      "}\\": 5970,
      "▁spread": 5971,
      "▁patient": 5972,
      "▁characters": 5973,
      "map": 5974,
      "▁factors": 5975,
      "▁vac": 5976,
      "run": 5977,
      "▁Sal": 5978,
      "▁rap": 5979,
      "▁depend": 5980,
      "actions": 5981,
      "▁dating": 5982,
      "▁blue": 5983,
      "ancing": 5984,
      "---": 5985,
      "igen": 5986,
      "▁amb": 5987,
      "ela": 5988,
      "▁fab": 5989,
      "▁//": 5990,
      "else": 5991,
      "▁named": 5992,
      "house": 5993,
      "color": 5994,
      "antes": 5995,
      "▁sust": 5996,
      "▁voice": 5997,
      "ka": 5998,
      "width": 5999,
      "ota": 6000,
      "▁sont": 6001,
      "▁wild": 6002,
      "bed": 6003,
      "▁businesses": 6004,
      "vere": 6005,
      "idos": 6006,
      "▁goals": 6007,
      "rec": 6008,
      "▁families": 6009,
      "▁Canada": 6010,
      "▁von": 6011,
      "▁born": 6012,
      "usiness": 6013,
      "▁steps": 6014,
      "▁serve": 6015,
      "▁||": 6016,
      "ooth": 6017,
      "▁Commun": 6018,
      "phone": 6019,
      "▁cold": 6020,
      "}\r": 6021,
      "▁baby": 6022,
      "▁solutions": 6023,
      "▁useful": 6024,
      "itect": 6025,
      "▁Mart": 6026,
      "▁figure": 6027,
      "ashion": 6028,
      "▁News": 6029,
      "df": 6030,
      "▁reports": 6031,
      "ola": 6032,
      "ér": 6033,
      "igation": 6034,
      "Me": 6035,
      "▁budget": 6036,
      "▁showed": 6037,
      "build": 6038,
      "state": 6039,
      "▁vehicle": 6040,
      "▁Well": 6041,
      "▁fol": 6042,
      "▁photo": 6043,
      "▁resist": 6044,
      "▁anti": 6045,
      "▁memory": 6046,
      "▁perhaps": 6047,
      "osition": 6048,
      "inos": 6049,
      "ashington": 6050,
      "Form": 6051,
      "▁comments": 6052,
      "▁cab": 6053,
      "▁East": 6054,
      "usher": 6055,
      "▁trial": 6056,
      "▁elements": 6057,
      "▁novel": 6058,
      "▁output": 6059,
      "▁European": 6060,
      "▁sequ": 6061,
      "▁י": 6062,
      "ivery": 6063,
      "▁Gold": 6064,
      "▁bottom": 6065,
      "▁ahead": 6066,
      "▁profession": 6067,
      "ijn": 6068,
      "▁produce": 6069,
      "▁slight": 6070,
      "▁window": 6071,
      "▁Ve": 6072,
      "--------------------------------": 6073,
      "IF": 6074,
      "▁guide": 6075,
      "▁chem": 6076,
      "▁gone": 6077,
      "▁consult": 6078,
      "▁benefit": 6079,
      "▁solid": 6080,
      "While": 6081,
      "▁lots": 6082,
      "▁director": 6083,
      "input": 6084,
      "oma": 6085,
      "inger": 6086,
      "Inst": 6087,
      "link": 6088,
      "▁truly": 6089,
      "▁express": 6090,
      "())": 6091,
      "▁February": 6092,
      "anto": 6093,
      "▁schools": 6094,
      "rapy": 6095,
      "▁offered": 6096,
      "▁Sam": 6097,
      "orrow": 6098,
      "url": 6099,
      "▁compar": 6100,
      "▁poor": 6101,
      "AME": 6102,
      "▁spirit": 6103,
      "active": 6104,
      "▁seven": 6105,
      "▁scient": 6106,
      "post": 6107,
      "▁appreci": 6108,
      "▁General": 6109,
      "▁pow": 6110,
      "▁hundred": 6111,
      "▁construction": 6112,
      "▁analy": 6113,
      "▁Def": 6114,
      "ustr": 6115,
      "▁tom": 6116,
      "▁task": 6117,
      "▁Ver": 6118,
      "eds": 6119,
      "▁princip": 6120,
      "▁Cam": 6121,
      "▁score": 6122,
      "uns": 6123,
      "▁background": 6124,
      "friend": 6125,
      "▁deliver": 6126,
      "▁reflect": 6127,
      "abil": 6128,
      "▁Christmas": 6129,
      "MA": 6130,
      "▁damage": 6131,
      "▁tro": 6132,
      "▁Sa": 6133,
      "▁passed": 6134,
      "encia": 6135,
      "▁expand": 6136,
      "UL": 6137,
      "host": 6138,
      "oman": 6139,
      "▁vill": 6140,
      "▁suff": 6141,
      "▁concent": 6142,
      "▁magn": 6143,
      "▁quarter": 6144,
      "▁adjust": 6145,
      "▁occas": 6146,
      "rab": 6147,
      "▁regarding": 6148,
      "▁catch": 6149,
      "▁Jesus": 6150,
      "▁Ben": 6151,
      "▁Dan": 6152,
      "content": 6153,
      "▁DE": 6154,
      "Fr": 6155,
      "▁generally": 6156,
      "▁Rem": 6157,
      "▁prot": 6158,
      "RA": 6159,
      "▁extremely": 6160,
      "▁estim": 6161,
      "ifying": 6162,
      "▁White": 6163,
      "▁:=": 6164,
      "▁strategy": 6165,
      "▁Bel": 6166,
      "▁sports": 6167,
      "while": 6168,
      "▁shared": 6169,
      "anta": 6170,
      "result": 6171,
      "▁degree": 6172,
      "▁Law": 6173,
      "▁award": 6174,
      "▁existing": 6175,
      "='": 6176,
      "ius": 6177,
      "▁requirements": 6178,
      "▁largest": 6179,
      "▁join": 6180,
      "nel": 6181,
      "eline": 6182,
      "▁brother": 6183,
      "▁described": 6184,
      "OP": 6185,
      "▁rat": 6186,
      "▁tu": 6187,
      "▁Best": 6188,
      "▁ton": 6189,
      "can": 6190,
      "▁Please": 6191,
      "▁challenge": 6192,
      "uesday": 6193,
      "CL": 6194,
      "▁sto": 6195,
      "ursday": 6196,
      "▁Any": 6197,
      "▁mer": 6198,
      "▁electric": 6199,
      "ipping": 6200,
      "▁Serv": 6201,
      "▁guy": 6202,
      "ام": 6203,
      "▁ي": 6204,
      "bling": 6205,
      "());": 6206,
      "kt": 6207,
      "▁multi": 6208,
      "▁flu": 6209,
      "▁obvious": 6210,
      "▁wonderful": 6211,
      "▁glass": 6212,
      "▁של": 6213,
      "▁batter": 6214,
      "▁Service": 6215,
      "▁Other": 6216,
      "▁transform": 6217,
      "▁push": 6218,
      "▁sin": 6219,
      "Log": 6220,
      "▁advert": 6221,
      "State": 6222,
      "▁->": 6223,
      "inder": 6224,
      "▁therefore": 6225,
      "▁Inter": 6226,
      "▁corpor": 6227,
      "▁brain": 6228,
      "rix": 6229,
      "▁powerful": 6230,
      "▁Tex": 6231,
      "▁remove": 6232,
      "▁Green": 6233,
      "▁Sl": 6234,
      "▁wouldn": 6235,
      "Class": 6236,
      "▁husband": 6237,
      "izer": 6238,
      "▁kept": 6239,
      "rael": 6240,
      "▁guess": 6241,
      "▁haven": 6242,
      "▁Hot": 6243,
      "iller": 6244,
      "Here": 6245,
      "▁surround": 6246,
      "▁PC": 6247,
      "ema": 6248,
      "works": 6249,
      "ocket": 6250,
      "▁Trump": 6251,
      "▁truth": 6252,
      "▁Book": 6253,
      "rey": 6254,
      "▁attract": 6255,
      "free": 6256,
      "trans": 6257,
      "▁helped": 6258,
      "ride": 6259,
      "▁strength": 6260,
      "▁pages": 6261,
      "▁è": 6262,
      "▁index": 6263,
      "▁partner": 6264,
      "cell": 6265,
      "▁seeing": 6266,
      "oles": 6267,
      "▁ren": 6268,
      "▁church": 6269,
      "▁handle": 6270,
      "ona": 6271,
      "ML": 6272,
      "▁bul": 6273,
      "▁graph": 6274,
      "abled": 6275,
      "▁Many": 6276,
      "▁except": 6277,
      "[]": 6278,
      "▁mel": 6279,
      "▁medic": 6280,
      "▁guys": 6281,
      "▁British": 6282,
      "▁federal": 6283,
      "ampions": 6284,
      "▁Great": 6285,
      "▁Over": 6286,
      "▁Techn": 6287,
      "expect": 6288,
      "iento": 6289,
      "ech": 6290,
      "▁tit": 6291,
      "SS": 6292,
      "rian": 6293,
      "▁mort": 6294,
      "inese": 6295,
      "orial": 6296,
      "issions": 6297,
      "ול": 6298,
      "▁military": 6299,
      "▁larger": 6300,
      "sl": 6301,
      "▁science": 6302,
      "IA": 6303,
      "iling": 6304,
      "▁central": 6305,
      "▁epis": 6306,
      "▁Sub": 6307,
      "inally": 6308,
      "▁paint": 6309,
      "anned": 6310,
      "▁hotel": 6311,
      "▁button": 6312,
      "▁Washington": 6313,
      "ses": 6314,
      "▁Mal": 6315,
      "▁spl": 6316,
      "osis": 6317,
      "▁om": 6318,
      "undo": 6319,
      "▁Since": 6320,
      "▁format": 6321,
      "imento": 6322,
      "▁accur": 6323,
      "▁requires": 6324,
      "uis": 6325,
      "▁Internet": 6326,
      "Service": 6327,
      "▁hy": 6328,
      "▁trend": 6329,
      "▁society": 6330,
      "▁beg": 6331,
      "▁Play": 6332,
      "▁owners": 6333,
      "▁opportunities": 6334,
      "▁£": 6335,
      "item": 6336,
      "▁sua": 6337,
      "▁defin": 6338,
      "DA": 6339,
      "nesday": 6340,
      "▁lab": 6341,
      "xy": 6342,
      "Path": 6343,
      ">\r": 6344,
      "▁Home": 6345,
      "▁prepar": 6346,
      "posit": 6347,
      "éc": 6348,
      "▁Met": 6349,
      "icated": 6350,
      "▁College": 6351,
      "Up": 6352,
      "▁direction": 6353,
      "▁cart": 6354,
      "▁breat": 6355,
      "anging": 6356,
      "▁Republic": 6357,
      "agram": 6358,
      "▁sweet": 6359,
      "▁jobs": 6360,
      "aine": 6361,
      "▁lock": 6362,
      "rid": 6363,
      "▁opening": 6364,
      "▁harm": 6365,
      "▁collabor": 6366,
      "▁storage": 6367,
      "▁continued": 6368,
      "▁aux": 6369,
      "▁protection": 6370,
      "oving": 6371,
      "ala": 6372,
      "▁camera": 6373,
      "▁Ama": 6374,
      "▁nav": 6375,
      "▁letter": 6376,
      "▁Il": 6377,
      "lib": 6378,
      "▁onto": 6379,
      "▁thank": 6380,
      "▁contains": 6381,
      "▁Rec": 6382,
      "▁wa": 6383,
      "ati": 6384,
      "._": 6385,
      "▁disapp": 6386,
      "▁rob": 6387,
      "](#": 6388,
      "▁Sk": 6389,
      "▁bes": 6390,
      "▁drop": 6391,
      "▁ideal": 6392,
      "▁finished": 6393,
      "roy": 6394,
      "▁district": 6395,
      "Ent": 6396,
      "▁income": 6397,
      "atically": 6398,
      "Config": 6399,
      "Def": 6400,
      "▁finding": 6401,
      "iled": 6402,
      "▁ign": 6403,
      "▁repe": 6404,
      "▁row": 6405,
      "▁ju": 6406,
      "▁mentioned": 6407,
      "▁critical": 6408,
      "Event": 6409,
      "▁Mid": 6410,
      "pective": 6411,
      "▁bien": 6412,
      "////": 6413,
      "▁foi": 6414,
      "▁scen": 6415,
      "pat": 6416,
      "▁spect": 6417,
      "▁mist": 6418,
      "▁weather": 6419,
      "look": 6420,
      "▁produced": 6421,
      ".\r": 6422,
      "▁pictures": 6423,
      "▁determine": 6424,
      "▁brow": 6425,
      "oria": 6426,
      "ellig": 6427,
      "▁miles": 6428,
      "php": 6429,
      "othing": 6430,
      "▁Class": 6431,
      "▁reality": 6432,
      "▁Cong": 6433,
      "▁tree": 6434,
      "respond": 6435,
      "▁predict": 6436,
      "▁Web": 6437,
      "ello": 6438,
      "▁girls": 6439,
      "EST": 6440,
      "▁station": 6441,
      "▁behavior": 6442,
      "▁psych": 6443,
      "▁older": 6444,
      "▁vent": 6445,
      "لى": 6446,
      "▁football": 6447,
      "known": 6448,
      "▁Cle": 6449,
      "▁drug": 6450,
      "Che": 6451,
      "ipp": 6452,
      "iation": 6453,
      ")\r": 6454,
      "▁pros": 6455,
      "▁offering": 6456,
      "▁Good": 6457,
      "▁[@": 6458,
      "▁unf": 6459,
      "▁guid": 6460,
      "▁Tuesday": 6461,
      "▁diagn": 6462,
      "package": 6463,
      "asy": 6464,
      "▁agree": 6465,
      "Request": 6466,
      "emy": 6467,
      "▁alt": 6468,
      "▁efforts": 6469,
      "▁mut": 6470,
      "lands": 6471,
      "▁Mag": 6472,
      "▁Found": 6473,
      "Ed": 6474,
      "▁gradu": 6475,
      "▁Thursday": 6476,
      "▁served": 6477,
      "▁died": 6478,
      "▁era": 6479,
      "ctors": 6480,
      "▁established": 6481,
      "estival": 6482,
      "▁cards": 6483,
      "▁French": 6484,
      "▁manufacture": 6485,
      "▁Hall": 6486,
      "▁advantage": 6487,
      "clusion": 6488,
      "akers": 6489,
      "▁Mat": 6490,
      "▁France": 6491,
      "usion": 6492,
      "▁incred": 6493,
      "▁fan": 6494,
      "▁properties": 6495,
      "cks": 6496,
      "▁testing": 6497,
      "▁James": 6498,
      "arante": 6499,
      "▁learned": 6500,
      "atures": 6501,
      "▁workers": 6502,
      "▁heavy": 6503,
      "▁whatever": 6504,
      "pha": 6505,
      "▁thus": 6506,
      "▁happens": 6507,
      "▁Test": 6508,
      "▁bill": 6509,
      "ência": 6510,
      "▁zu": 6511,
      "▁Ret": 6512,
      "iber": 6513,
      "sm": 6514,
      "▁adapt": 6515,
      "ffee": 6516,
      "▁establish": 6517,
      "▁shop": 6518,
      "▁meant": 6519,
      "▁movement": 6520,
      "▁Prof": 6521,
      "▁peace": 6522,
      "▁finish": 6523,
      "CA": 6524,
      "pass": 6525,
      "▁calls": 6526,
      "cha": 6527,
      "utely": 6528,
      "▁mode": 6529,
      "▁caused": 6530,
      "urrent": 6531,
      "▁Mad": 6532,
      "án": 6533,
      "ye": 6534,
      "▁grat": 6535,
      "reme": 6536,
      "▁wed": 6537,
      "▁Why": 6538,
      "▁afford": 6539,
      "▁biggest": 6540,
      "▁OR": 6541,
      "▁Data": 6542,
      "▁Tom": 6543,
      "▁incor": 6544,
      "oves": 6545,
      "▁highest": 6546,
      "▁ist": 6547,
      "itz": 6548,
      "▁advice": 6549,
      "ologies": 6550,
      "▁diet": 6551,
      "▁▁▁▁▁▁▁▁▁▁▁▁▁▁▁": 6552,
      "Us": 6553,
      "dule": 6554,
      "api": 6555,
      "▁restrict": 6556,
      "yth": 6557,
      "▁comfortable": 6558,
      "▁appropriate": 6559,
      "▁kid": 6560,
      "▁knows": 6561,
      "▁driving": 6562,
      "▁Australia": 6563,
      "▁Es": 6564,
      "▁kitchen": 6565,
      "▁bow": 6566,
      "▁actions": 6567,
      "inct": 6568,
      "▁Read": 6569,
      "{}": 6570,
      "pty": 6571,
      "ortunately": 6572,
      "▁responsible": 6573,
      "vention": 6574,
      "TH": 6575,
      "▁COVID": 6576,
      "▁century": 6577,
      "car": 6578,
      "asure": 6579,
      "▁presented": 6580,
      "how": 6581,
      "icious": 6582,
      "▁thanks": 6583,
      "call": 6584,
      "▁arm": 6585,
      "check": 6586,
      "iler": 6587,
      "▁Cap": 6588,
      "▁polic": 6589,
      "▁pued": 6590,
      "▁calcul": 6591,
      "▁monitor": 6592,
      "eles": 6593,
      "▁session": 6594,
      "hens": 6595,
      "▁Open": 6596,
      "▁discover": 6597,
      "CE": 6598,
      "▁stick": 6599,
      "has": 6600,
      "▁fra": 6601,
      "ersion": 6602,
      "▁closed": 6603,
      "▁economy": 6604,
      ".\"": 6605,
      "▁danger": 6606,
      "▁daughter": 6607,
      "OW": 6608,
      "▁temperature": 6609,
      "▁expression": 6610,
      "acement": 6611,
      "▁Because": 6612,
      "▁waiting": 6613,
      "sole": 6614,
      "pret": 6615,
      "▁motor": 6616,
      "▁pool": 6617,
      "iliar": 6618,
      "vin": 6619,
      "▁Although": 6620,
      "▁burn": 6621,
      "▁gift": 6622,
      "pi": 6623,
      "▁Public": 6624,
      "Context": 6625,
      "▁remains": 6626,
      "▁divers": 6627,
      "▁package": 6628,
      "▁Cas": 6629,
      "▁flex": 6630,
      "▁Program": 6631,
      "zo": 6632,
      "▁Wednesday": 6633,
      "dered": 6634,
      "▁Mil": 6635,
      "(\\": 6636,
      "▁scene": 6637,
      "idden": 6638,
      "well": 6639,
      "berg": 6640,
      "▁annual": 6641,
      "▁selection": 6642,
      "▁adding": 6643,
      "▁journey": 6644,
      "▁bag": 6645,
      "▁opened": 6646,
      "care": 6647,
      "tered": 6648,
      "▁Jo": 6649,
      "ipped": 6650,
      "These": 6651,
      "DF": 6652,
      "▁functions": 6653,
      "%)": 6654,
      "amily": 6655,
      "▁faith": 6656,
      "EX": 6657,
      "▁performed": 6658,
      "▁rare": 6659,
      "ها": 6660,
      "▁Rich": 6661,
      "▁Texas": 6662,
      "uts": 6663,
      "Item": 6664,
      "▁ban": 6665,
      "Info": 6666,
      "▁pair": 6667,
      "mission": 6668,
      "▁Company": 6669,
      "igr": 6670,
      "▁Que": 6671,
      "hips": 6672,
      "osh": 6673,
      "Fig": 6674,
      "isa": 6675,
      "▁master": 6676,
      "riage": 6677,
      "▁entry": 6678,
      "ית": 6679,
      "▁experienced": 6680,
      "▁vacc": 6681,
      "▁wear": 6682,
      "▁flav": 6683,
      "ya": 6684,
      "icas": 6685,
      "▁auto": 6686,
      "▁coffee": 6687,
      "Some": 6688,
      "length": 6689,
      "gal": 6690,
      "script": 6691,
      "▁toward": 6692,
      "▁selected": 6693,
      "▁Once": 6694,
      "Ser": 6695,
      "▁switch": 6696,
      "▁majority": 6697,
      "▁exhib": 6698,
      "▁presence": 6699,
      "▁runs": 6700,
      "▁videos": 6701,
      "▁species": 6702,
      "conds": 6703,
      "▁rank": 6704,
      "▁counter": 6705,
      "▁negative": 6706,
      "▁Council": 6707,
      "▁completed": 6708,
      "\"}": 6709,
      "▁Mo": 6710,
      "Rec": 6711,
      "Don": 6712,
      "▁sea": 6713,
      "▁Sur": 6714,
      "▁pou": 6715,
      "▁decre": 6716,
      "▁distance": 6717,
      "▁cop": 6718,
      "▁Christian": 6719,
      "▁shape": 6720,
      "▁previously": 6721,
      "endant": 6722,
      "▁CD": 6723,
      "▁evol": 6724,
      "▁Israel": 6725,
      "▁List": 6726,
      "osing": 6727,
      "▁initi": 6728,
      "page": 6729,
      "▁becomes": 6730,
      "Out": 6731,
      "▁vs": 6732,
      "olic": 6733,
      "▁tip": 6734,
      "ULL": 6735,
      "▁reserv": 6736,
      "▁luck": 6737,
      "van": 6738,
      "▁scale": 6739,
      "▁capacity": 6740,
      "ander": 6741,
      "▁visual": 6742,
      "▁leader": 6743,
      "▁appears": 6744,
      "Aut": 6745,
      "ads": 6746,
      "anda": 6747,
      "▁column": 6748,
      "fs": 6749,
      "aciones": 6750,
      "▁dyn": 6751,
      "▁Year": 6752,
      "▁sexual": 6753,
      "▁sport": 6754,
      "▁Som": 6755,
      "zy": 6756,
      "▁pieces": 6757,
      "aria": 6758,
      "▁sector": 6759,
      "▁communic": 6760,
      "base": 6761,
      "open": 6762,
      "db": 6763,
      "ismo": 6764,
      "uman": 6765,
      "info": 6766,
      "Reg": 6767,
      "nect": 6768,
      "util": 6769,
      "▁seemed": 6770,
      "TS": 6771,
      "▁Sil": 6772,
      "▁Bank": 6773,
      "amin": 6774,
      "▁sources": 6775,
      "▁susp": 6776,
      "idades": 6777,
      "ferences": 6778,
      "▁appoint": 6779,
      "Ass": 6780,
      "ords": 6781,
      "ql": 6782,
      "Pr": 6783,
      "▁manager": 6784,
      "parent": 6785,
      "▁ho": 6786,
      "▁anc": 6787,
      "▁People": 6788,
      "▁grant": 6789,
      "ño": 6790,
      "ucle": 6791,
      "▁driver": 6792,
      "image": 6793,
      "▁mission": 6794,
      "▁pun": 6795,
      "▁Flor": 6796,
      "▁cris": 6797,
      "▁dress": 6798,
      "urb": 6799,
      "group": 6800,
      "▁helping": 6801,
      "▁tests": 6802,
      "ques": 6803,
      "▁placed": 6804,
      "▁rule": 6805,
      "▁Big": 6806,
      "▁rot": 6807,
      "▁launch": 6808,
      "aron": 6809,
      "cles": 6810,
      "▁Chinese": 6811,
      "title": 6812,
      "▁lose": 6813,
      "unction": 6814,
      "▁ont": 6815,
      "▁showing": 6816,
      "▁od": 6817,
      "▁Church": 6818,
      "ideo": 6819,
      "▁delivery": 6820,
      "▁homes": 6821,
      "aire": 6822,
      "▁Rob": 6823,
      "iser": 6824,
      "core": 6825,
      "omas": 6826,
      "▁forms": 6827,
      "cos": 6828,
      "▁ended": 6829,
      "ço": 6830,
      "position": 6831,
      "▁Apple": 6832,
      "▁traffic": 6833,
      "▁Jer": 6834,
      "▁mental": 6835,
      "▁separate": 6836,
      "ker": 6837,
      "▁Work": 6838,
      "▁classes": 6839,
      "create": 6840,
      "▁rich": 6841,
      "oyal": 6842,
      "▁Los": 6843,
      "ums": 6844,
      "▁trav": 6845,
      "▁smaller": 6846,
      "▁clearly": 6847,
      "ki": 6848,
      "ample": 6849,
      "▁chat": 6850,
      "hent": 6851,
      "▁manage": 6852,
      "oir": 6853,
      "▁challenges": 6854,
      "▁flo": 6855,
      "▁fold": 6856,
      "▁exception": 6857,
      "▁Set": 6858,
      "cor": 6859,
      "▁Down": 6860,
      "▁reli": 6861,
      "▁parties": 6862,
      "▁Lou": 6863,
      "▁script": 6864,
      "▁claims": 6865,
      "▁TH": 6866,
      "model": 6867,
      "▁watching": 6868,
      "▁gro": 6869,
      "▁ingred": 6870,
      "▁Thanks": 6871,
      "▁factor": 6872,
      "▁owner": 6873,
      "!)": 6874,
      "▁audience": 6875,
      "נו": 6876,
      "rier": 6877,
      "▁artist": 6878,
      "▁alleg": 6879,
      "NAME": 6880,
      "▁operations": 6881,
      "▁entertain": 6882,
      "▁votre": 6883,
      "▁numerous": 6884,
      "▁despite": 6885,
      "▁prime": 6886,
      "▁Oh": 6887,
      "ildren": 6888,
      "▁balance": 6889,
      "▁ped": 6890,
      "sey": 6891,
      "▁Mem": 6892,
      "▁core": 6893,
      "which": 6894,
      "▁assum": 6895,
      "▁Rel": 6896,
      "▁bath": 6897,
      "PR": 6898,
      "▁Twitter": 6899,
      "ulated": 6900,
      "ún": 6901,
      "▁sand": 6902,
      "yr": 6903,
      "▁correspond": 6904,
      "▁rid": 6905,
      "chers": 6906,
      "break": 6907,
      "Dis": 6908,
      "▁plants": 6909,
      "▁views": 6910,
      "▁operation": 6911,
      "count": 6912,
      "▁Grand": 6913,
      "▁uns": 6914,
      "porary": 6915,
      "antic": 6916,
      "▁impl": 6917,
      "▁Fil": 6918,
      "istrict": 6919,
      "▁adopt": 6920,
      "ename": 6921,
      "▁wid": 6922,
      "▁approxim": 6923,
      "▁failed": 6924,
      "▁earth": 6925,
      "▁neighbor": 6926,
      "▁Club": 6927,
      "▁reviews": 6928,
      "▁keeping": 6929,
      "aren": 6930,
      "lis": 6931,
      "TR": 6932,
      "▁experiment": 6933,
      "idas": 6934,
      "▁surg": 6935,
      "▁payment": 6936,
      "inte": 6937,
      "▁NOT": 6938,
      "▁conven": 6939,
      "▁Form": 6940,
      "ructure": 6941,
      "▁street": 6942,
      "▁connected": 6943,
      "רו": 6944,
      "▁defined": 6945,
      "BA": 6946,
      "▁Vol": 6947,
      "▁returned": 6948,
      "▁aqu": 6949,
      "▁decor": 6950,
      "▁leaving": 6951,
      "▁prepared": 6952,
      "lies": 6953,
      ");\r": 6954,
      "▁decide": 6955,
      "▁Bay": 6956,
      "▁England": 6957,
      "▁Ann": 6958,
      "clusive": 6959,
      "rad": 6960,
      "ez": 6961,
      "▁otherwise": 6962,
      "▁poll": 6963,
      "▁Michael": 6964,
      "▁Sing": 6965,
      "imb": 6966,
      "itors": 6967,
      "lig": 6968,
      "▁guarante": 6969,
      "▁secure": 6970,
      "▁auf": 6971,
      "▁experiences": 6972,
      "▁Amazon": 6973,
      "▁starts": 6974,
      "▁Educ": 6975,
      "rat": 6976,
      "▁pand": 6977,
      "▁foreign": 6978,
      "▁continues": 6979,
      "▁construct": 6980,
      "Map": 6981,
      "However": 6982,
      "▁har": 6983,
      "json": 6984,
      "eting": 6985,
      "semb": 6986,
      "▁funds": 6987,
      "BS": 6988,
      "len": 6989,
      "wo": 6990,
      "atal": 6991,
      "craft": 6992,
      "eder": 6993,
      "▁esta": 6994,
      "ere": 6995,
      "itness": 6996,
      "eless": 6997,
      "ponent": 6998,
      "▁relax": 6999,
      "▁bound": 7000,
      "otal": 7001,
      "User": 7002,
      "▁Board": 7003,
      "▁Association": 7004,
      "VER": 7005,
      "▁gain": 7006,
      "sem": 7007,
      "▁steel": 7008,
      "what": 7009,
      "esso": 7010,
      "▁acad": 7011,
      "uled": 7012,
      "iene": 7013,
      "▁Die": 7014,
      "▁communication": 7015,
      "ière": 7016,
      "▁random": 7017,
      "▁sympt": 7018,
      "▁bra": 7019,
      "acks": 7020,
      "▁fill": 7021,
      "▁covered": 7022,
      "▁seu": 7023,
      "▁AND": 7024,
      "▁relevant": 7025,
      "▁fre": 7026,
      "▁League": 7027,
      "uster": 7028,
      "ifier": 7029,
      "▁Whe": 7030,
      "▁legis": 7031,
      "▁eth": 7032,
      "▁efficient": 7033,
      "▁effic": 7034,
      "Result": 7035,
      "▁evening": 7036,
      "▁Plan": 7037,
      "max": 7038,
      "▁rev": 7039,
      "▁Office": 7040,
      "▁fish": 7041,
      "▁civil": 7042,
      "▁mur": 7043,
      "▁als": 7044,
      "PE": 7045,
      "\"]": 7046,
      "▁nous": 7047,
      "acht": 7048,
      "▁Develop": 7049,
      "▁doctor": 7050,
      "▁Dec": 7051,
      "▁retail": 7052,
      "▁std": 7053,
      "Model": 7054,
      "alle": 7055,
      "▁Time": 7056,
      "Can": 7057,
      "▁becoming": 7058,
      "aper": 7059,
      "istan": 7060,
      "coin": 7061,
      "Ste": 7062,
      "night": 7063,
      "▁()": 7064,
      "▁stated": 7065,
      "▁independent": 7066,
      "omet": 7067,
      "▁condu": 7068,
      "▁Mary": 7069,
      "▁reference": 7070,
      "ns": 7071,
      "rip": 7072,
      "adores": 7073,
      "▁mostly": 7074,
      "ded": 7075,
      "▁Lo": 7076,
      "rd": 7077,
      "▁animals": 7078,
      "stream": 7079,
      "▁laun": 7080,
      "▁Camp": 7081,
      "▁insp": 7082,
      "ensions": 7083,
      "▁cup": 7084,
      "▁Each": 7085,
      "▁communities": 7086,
      "win": 7087,
      "▁competition": 7088,
      "▁Alex": 7089,
      "▁Les": 7090,
      "▁ID": 7091,
      "istered": 7092,
      "▁Lord": 7093,
      "Trans": 7094,
      "ير": 7095,
      "▁purs": 7096,
      "dev": 7097,
      "▁exercise": 7098,
      "Equ": 7099,
      "ESS": 7100,
      "About": 7101,
      "▁labor": 7102,
      "▁fashion": 7103,
      "icial": 7104,
      "FL": 7105,
      "anged": 7106,
      "iano": 7107,
      "Code": 7108,
      "▁metal": 7109,
      "\"></": 7110,
      "▁Star": 7111,
      "Go": 7112,
      "▁USA": 7113,
      "▁Use": 7114,
      "flow": 7115,
      "frac": 7116,
      "Sub": 7117,
      "▁raised": 7118,
      "▁reached": 7119,
      "ulate": 7120,
      "▁plenty": 7121,
      "▁Business": 7122,
      "▁spring": 7123,
      "FA": 7124,
      "ev": 7125,
      "argin": 7126,
      "lication": 7127,
      "ston": 7128,
      "▁alternative": 7129,
      "▁jump": 7130,
      "standing": 7131,
      "ATE": 7132,
      "estion": 7133,
      "dy": 7134,
      "▁Android": 7135,
      "▁crow": 7136,
      "alls": 7137,
      "▁honest": 7138,
      "▁brief": 7139,
      "▁إ": 7140,
      "▁Online": 7141,
      "▁Research": 7142,
      "▁conduct": 7143,
      "unte": 7144,
      "▁Di": 7145,
      "▁bought": 7146,
      "]\\]": 7147,
      "grad": 7148,
      "ayout": 7149,
      "▁ship": 7150,
      "▁המ": 7151,
      "▁($": 7152,
      "▁rom": 7153,
      "Size": 7154,
      "▁plug": 7155,
      "▁Hel": 7156,
      "▁<<": 7157,
      "▁für": 7158,
      "▁IT": 7159,
      "▁records": 7160,
      "▁Const": 7161,
      ")$": 7162,
      "inda": 7163,
      "Sp": 7164,
      "▁ven": 7165,
      "lock": 7166,
      "▁agreement": 7167,
      "ouble": 7168,
      "▁ut": 7169,
      "Let": 7170,
      "ialog": 7171,
      "▁protein": 7172,
      "orter": 7173,
      "iente": 7174,
      "▁applied": 7175,
      "wer": 7176,
      "Why": 7177,
      "▁Top": 7178,
      "▁tut": 7179,
      "▁minute": 7180,
      "press": 7181,
      "▁info": 7182,
      "▁loan": 7183,
      "long": 7184,
      "acer": 7185,
      "▁managed": 7186,
      "▁Ber": 7187,
      "ogen": 7188,
      "▁ot": 7189,
      "▁excited": 7190,
      "▁developing": 7191,
      "▁mir": 7192,
      "▁cos": 7193,
      "▁citiz": 7194,
      "▁volume": 7195,
      "IO": 7196,
      "ugh": 7197,
      "▁talent": 7198,
      "▁cars": 7199,
      "▁journal": 7200,
      "volution": 7201,
      "▁Africa": 7202,
      "▁hyd": 7203,
      "▁lic": 7204,
      "Post": 7205,
      "▁smooth": 7206,
      "▁beat": 7207,
      "▁significantly": 7208,
      "▁thoughts": 7209,
      "▁pap": 7210,
      "▁Fore": 7211,
      "▁Phil": 7212,
      "\"\"": 7213,
      "▁Check": 7214,
      "izar": 7215,
      "▁slightly": 7216,
      "fit": 7217,
      "▁ice": 7218,
      "▁apart": 7219,
      "fast": 7220,
      "Em": 7221,
      "▁famous": 7222,
      "▁absolutely": 7223,
      "▁label": 7224,
      "▁rapid": 7225,
      "▁internal": 7226,
      "▁possibly": 7227,
      "ños": 7228,
      "iem": 7229,
      "▁Tor": 7230,
      "▁الت": 7231,
      "▁operating": 7232,
      "▁Hist": 7233,
      "PA": 7234,
      "▁java": 7235,
      "▁wer": 7236,
      "▁Democr": 7237,
      "▁missing": 7238,
      "▁links": 7239,
      "▁worry": 7240,
      "ee": 7241,
      "▁leaves": 7242,
      "▁Att": 7243,
      "▁River": 7244,
      "HT": 7245,
      "Build": 7246,
      "icken": 7247,
      "▁typically": 7248,
      "▁Jew": 7249,
      "going": 7250,
      "▁Commission": 7251,
      "osen": 7252,
      "▁ك": 7253,
      "▁forget": 7254,
      "▁Franc": 7255,
      "aked": 7256,
      "▁Power": 7257,
      "▁creative": 7258,
      "▁victim": 7259,
      "hi": 7260,
      "▁thousands": 7261,
      "Node": 7262,
      "}{": 7263,
      "othes": 7264,
      "▁opinion": 7265,
      "that": 7266,
      "▁organizations": 7267,
      "cons": 7268,
      "▁passion": 7269,
      "Act": 7270,
      "▁fell": 7271,
      "cohol": 7272,
      "▁identify": 7273,
      "▁Services": 7274,
      "iner": 7275,
      "▁templ": 7276,
      "fection": 7277,
      "▁advance": 7278,
      "yles": 7279,
      "▁ok": 7280,
      "eria": 7281,
      "▁medium": 7282,
      "▁library": 7283,
      "▁changing": 7284,
      "▁RE": 7285,
      "▁winter": 7286,
      "reedom": 7287,
      "▁alle": 7288,
      "▁Like": 7289,
      "▁attend": 7290,
      "▁posted": 7291,
      "▁egg": 7292,
      "▁willing": 7293,
      "▁coach": 7294,
      "▁sé": 7295,
      "▁sugar": 7296,
      "Te": 7297,
      "eld": 7298,
      "icos": 7299,
      "acional": 7300,
      "object": 7301,
      "▁components": 7302,
      "enda": 7303,
      "PL": 7304,
      "▁{\r": 7305,
      "una": 7306,
      "▁você": 7307,
      "agen": 7308,
      "▁sud": 7309,
      "node": 7310,
      "▁Tur": 7311,
      "unn": 7312,
      "fol": 7313,
      "▁Miss": 7314,
      "▁AM": 7315,
      "icing": 7316,
      "▁Ham": 7317,
      "esome": 7318,
      "▁eventually": 7319,
      "▁todos": 7320,
      "▁spending": 7321,
      "▁Make": 7322,
      "ensity": 7323,
      "ANT": 7324,
      "bro": 7325,
      "▁Bet": 7326,
      "SA": 7327,
      "▁UN": 7328,
      "edia": 7329,
      "Table": 7330,
      "prise": 7331,
      "abilities": 7332,
      "▁edge": 7333,
      "▁todo": 7334,
      "▁listed": 7335,
      "Per": 7336,
      "ég": 7337,
      "▁Road": 7338,
      "▁doubt": 7339,
      "actory": 7340,
      "▁ww": 7341,
      "▁architect": 7342,
      "▁putting": 7343,
      "▁Mont": 7344,
      "▁circum": 7345,
      "▁distribution": 7346,
      "udo": 7347,
      "icans": 7348,
      "oul": 7349,
      "▁listen": 7350,
      "otic": 7351,
      "▁motiv": 7352,
      "▁ans": 7353,
      "▁combination": 7354,
      "loat": 7355,
      "▁tips": 7356,
      "▁Mex": 7357,
      "▁vote": 7358,
      "▁elim": 7359,
      "roud": 7360,
      "▁flat": 7361,
      "▁supported": 7362,
      "▁According": 7363,
      "\"><": 7364,
      "▁asking": 7365,
      "▁buying": 7366,
      "▁Florida": 7367,
      "▁Sum": 7368,
      "▁explore": 7369,
      "▁cro": 7370,
      "▁menu": 7371,
      "FF": 7372,
      "Hand": 7373,
      "define": 7374,
      "▁female": 7375,
      "▁crim": 7376,
      "uty": 7377,
      "▁District": 7378,
      "▁symbol": 7379,
      "((": 7380,
      "▁database": 7381,
      "={": 7382,
      "▁none": 7383,
      "▁Microsoft": 7384,
      "xi": 7385,
      "Message": 7386,
      "▁walking": 7387,
      "▁sharing": 7388,
      "First": 7389,
      "version": 7390,
      "▁sounds": 7391,
      "▁interface": 7392,
      "▁entr": 7393,
      "cs": 7394,
      "▁radio": 7395,
      "▁boost": 7396,
      "▁▁▁▁▁▁▁▁▁▁▁▁▁▁▁▁▁▁": 7397,
      "ushed": 7398,
      "Fl": 7399,
      "ptions": 7400,
      "edy": 7401,
      "char": 7402,
      "reek": 7403,
      "▁officials": 7404,
      "▁nil": 7405,
      "▁sets": 7406,
      "▁relationships": 7407,
      "él": 7408,
      "▁maximum": 7409,
      "▁focused": 7410,
      "▁rain": 7411,
      "ول": 7412,
      "style": 7413,
      "▁convert": 7414,
      "▁fort": 7415,
      "▁\\[[@": 7416,
      "▁advent": 7417,
      "▁www": 7418,
      "iest": 7419,
      "▁restaurant": 7420,
      "▁Life": 7421,
      "▁á": 7422,
      "▁thr": 7423,
      "▁sched": 7424,
      "▁south": 7425,
      "▁sample": 7426,
      "▁conserv": 7427,
      "olean": 7428,
      "▁coord": 7429,
      "▁sac": 7430,
      "▁compre": 7431,
      "▁residents": 7432,
      "eler": 7433,
      "▁vision": 7434,
      "font": 7435,
      "▁Ze": 7436,
      "▁Ins": 7437,
      "▁unless": 7438,
      "▁PM": 7439,
      "▁techniques": 7440,
      "rolled": 7441,
      "izz": 7442,
      "▁rise": 7443,
      "you": 7444,
      "rig": 7445,
      "vas": 7446,
      "ipes": 7447,
      "arrow": 7448,
      "outhern": 7449,
      "▁influence": 7450,
      "▁height": 7451,
      "cr": 7452,
      "▁battle": 7453,
      "▁CON": 7454,
      "▁instr": 7455,
      "▁TO": 7456,
      "default": 7457,
      "▁vez": 7458,
      "etime": 7459,
      "▁totally": 7460,
      "lections": 7461,
      "▁generation": 7462,
      "▁ment": 7463,
      "▁returns": 7464,
      "blic": 7465,
      "▁complic": 7466,
      "▁senior": 7467,
      "▁taste": 7468,
      "▁conference": 7469,
      "Pre": 7470,
      "esterday": 7471,
      "▁Vir": 7472,
      "▁della": 7473,
      "Inter": 7474,
      "odies": 7475,
      "▁veget": 7476,
      "▁eating": 7477,
      "obe": 7478,
      "▁shut": 7479,
      "▁feels": 7480,
      "▁expensive": 7481,
      "ário": 7482,
      "▁bright": 7483,
      "rees": 7484,
      "▁fixed": 7485,
      "▁welcome": 7486,
      "▁ח": 7487,
      "▁mouth": 7488,
      "iat": 7489,
      "▁Lin": 7490,
      "HO": 7491,
      "▁familiar": 7492,
      "ulture": 7493,
      "▁wine": 7494,
      "▁signed": 7495,
      "rency": 7496,
      "Date": 7497,
      "Array": 7498,
      "▁exchange": 7499,
      "Phone": 7500,
      "▁whom": 7501,
      "▁rend": 7502,
      "▁sustain": 7503,
      "UM": 7504,
      "▁instit": 7505,
      "▁notes": 7506,
      "▁decisions": 7507,
      "rav": 7508,
      "▁Review": 7509,
      "uries": 7510,
      "][": 7511,
      "valid": 7512,
      "▁animal": 7513,
      "▁technical": 7514,
      "▁injury": 7515,
      "stract": 7516,
      "▁Director": 7517,
      "▁Their": 7518,
      "▁waste": 7519,
      "irmed": 7520,
      "▁arrest": 7521,
      "▁properly": 7522,
      "▁parte": 7523,
      "▁inspir": 7524,
      "▁lie": 7525,
      "atin": 7526,
      "▁snow": 7527,
      "▁Minister": 7528,
      "être": 7529,
      "iden": 7530,
      "▁zijn": 7531,
      ".[": 7532,
      "▁determined": 7533,
      "וד": 7534,
      "rome": 7535,
      "▁corner": 7536,
      "estic": 7537,
      "▁root": 7538,
      "▁Government": 7539,
      "▁markets": 7540,
      "TER": 7541,
      "▁processes": 7542,
      "▁holding": 7543,
      "▁standards": 7544,
      "▁concerns": 7545,
      "func": 7546,
      "▁proceed": 7547,
      "under": 7548,
      "▁divid": 7549,
      "▁killed": 7550,
      "▁aan": 7551,
      "▁Bill": 7552,
      "hal": 7553,
      "▁removed": 7554,
      "▁Yes": 7555,
      "רי": 7556,
      "▁kick": 7557,
      "▁minimum": 7558,
      "▁thick": 7559,
      "array": 7560,
      "fin": 7561,
      "▁Smith": 7562,
      "iana": 7563,
      "▁virtual": 7564,
      "▁estate": 7565,
      "▁trading": 7566,
      "▁hat": 7567,
      "anges": 7568,
      "▁liqu": 7569,
      "▁helpful": 7570,
      "▁faz": 7571,
      "SC": 7572,
      "umin": 7573,
      "({": 7574,
      "▁fuel": 7575,
      "▁winning": 7576,
      "▁cheap": 7577,
      "▁Fire": 7578,
      "names": 7579,
      "ups": 7580,
      "▁filled": 7581,
      "▁climate": 7582,
      "▁vit": 7583,
      "▁apps": 7584,
      "▁profile": 7585,
      "▁component": 7586,
      "imo": 7587,
      "Index": 7588,
      "umer": 7589,
      "▁resource": 7590,
      "▁married": 7591,
      "outs": 7592,
      "▁leads": 7593,
      "Att": 7594,
      "▁discussion": 7595,
      "▁univers": 7596,
      "TP": 7597,
      "▁Social": 7598,
      "weight": 7599,
      "▁measures": 7600,
      "▁identified": 7601,
      "bour": 7602,
      "▁north": 7603,
      "▁Str": 7604,
      "▁crusher": 7605,
      "▁את": 7606,
      "Count": 7607,
      "▁conflic": 7608,
      "orry": 7609,
      "▁mail": 7610,
      "real": 7611,
      "▁election": 7612,
      "▁advanced": 7613,
      "gment": 7614,
      "▁appeared": 7615,
      "▁hearing": 7616,
      "▁debt": 7617,
      "▁units": 7618,
      "▁Central": 7619,
      "▁explain": 7620,
      "pes": 7621,
      "▁panel": 7622,
      "▁Rock": 7623,
      "▁Blue": 7624,
      "▁settings": 7625,
      "ulations": 7626,
      "▁consequ": 7627,
      "▁nor": 7628,
      "▁minor": 7629,
      "grade": 7630,
      "▁theme": 7631,
      "▁songs": 7632,
      "Just": 7633,
      "▁introduced": 7634,
      "OC": 7635,
      "▁shopping": 7636,
      "lets": 7637,
      "▁cream": 7638,
      "request": 7639,
      "Read": 7640,
      "▁pi": 7641,
      "▁Ent": 7642,
      "▁subsc": 7643,
      "ilit": 7644,
      "block": 7645,
      "ae": 7646,
      "▁fields": 7647,
      "###": 7648,
      "mos": 7649,
      "▁san": 7650,
      "▁garden": 7651,
      "▁schedule": 7652,
      "ís": 7653,
      "▁calling": 7654,
      "▁laws": 7655,
      "▁reduced": 7656,
      "▁administration": 7657,
      "▁IP": 7658,
      "▁joint": 7659,
      "▁department": 7660,
      "abs": 7661,
      "Last": 7662,
      "ifications": 7663,
      "▁Project": 7664,
      "▁Secret": 7665,
      "aba": 7666,
      "▁Spe": 7667,
      "▁desc": 7668,
      "▁quiet": 7669,
      "▁enjoyed": 7670,
      "▁funding": 7671,
      "level": 7672,
      "▁plate": 7673,
      "oi": 7674,
      "▁thread": 7675,
      "▁joined": 7676,
      "▁Carol": 7677,
      "door": 7678,
      "▁colors": 7679,
      "▁agreed": 7680,
      "icago": 7681,
      "▁seconds": 7682,
      "▁Mot": 7683,
      "▁yes": 7684,
      "orney": 7685,
      "▁Institute": 7686,
      "▁male": 7687,
      "▁clinical": 7688,
      "pet": 7689,
      "▁Log": 7690,
      "▁allowing": 7691,
      "Element": 7692,
      "query": 7693,
      "emplate": 7694,
      "▁channel": 7695,
      "▁Mount": 7696,
      "angle": 7697,
      "Client": 7698,
      "▁ride": 7699,
      "▁Div": 7700,
      "▁discovered": 7701,
      "▁Nov": 7702,
      "elines": 7703,
      "▁diff": 7704,
      "▁Long": 7705,
      "According": 7706,
      "java": 7707,
      "▁bond": 7708,
      "iency": 7709,
      "▁forma": 7710,
      "▁sitting": 7711,
      "▁dinner": 7712,
      "▁processing": 7713,
      "life": 7714,
      "▁Its": 7715,
      "▁George": 7716,
      "▁Det": 7717,
      "▁supposed": 7718,
      "▁rac": 7719,
      "este": 7720,
      "AY": 7721,
      "▁route": 7722,
      "▁forg": 7723,
      "IB": 7724,
      "ructions": 7725,
      "▁Congress": 7726,
      "▁motion": 7727,
      "▁coverage": 7728,
      "▁accompl": 7729,
      "▁habit": 7730,
      "uffer": 7731,
      "▁ses": 7732,
      "▁classic": 7733,
      "▁experts": 7734,
      "▁documents": 7735,
      "Image": 7736,
      "****************": 7737,
      "bi": 7738,
      "▁الأ": 7739,
      "▁layer": 7740,
      "▁symptoms": 7741,
      "current": 7742,
      "▁accident": 7743,
      "▁mine": 7744,
      "pload": 7745,
      "▁stars": 7746,
      "img": 7747,
      "elta": 7748,
      "QL": 7749,
      "ít": 7750,
      "lam": 7751,
      "▁Two": 7752,
      "▁Island": 7753,
      "▁Paris": 7754,
      "Any": 7755,
      "ially": 7756,
      "▁German": 7757,
      "▁tag": 7758,
      "▁ran": 7759,
      "▁phase": 7760,
      "▁forces": 7761,
      "▁resear": 7762,
      "▁tight": 7763,
      "▁وال": 7764,
      "ears": 7765,
      "▁Design": 7766,
      "▁Color": 7767,
      "▁proposed": 7768,
      "▁craft": 7769,
      "▁posts": 7770,
      "section": 7771,
      "▁importance": 7772,
      "anz": 7773,
      "▁tor": 7774,
      "▁updated": 7775,
      "▁brings": 7776,
      "yer": 7777,
      "▁topic": 7778,
      "UP": 7779,
      "▁plays": 7780,
      "More": 7781,
      "▁revealed": 7782,
      "▁agency": 7783,
      "GB": 7784,
      "▁ya": 7785,
      "▁Mer": 7786,
      "ributes": 7787,
      "▁selling": 7788,
      "azine": 7789,
      "▁lit": 7790,
      "orthern": 7791,
      "▁intellig": 7792,
      "CD": 7793,
      "▁conversation": 7794,
      "Ne": 7795,
      "ossible": 7796,
      "▁solo": 7797,
      "II": 7798,
      "▁practices": 7799,
      "▁incorpor": 7800,
      "▁euro": 7801,
      "▁Commit": 7802,
      "▁defense": 7803,
      "▁specifically": 7804,
      "▁impress": 7805,
      "▁compr": 7806,
      "▁Lake": 7807,
      "▁Foundation": 7808,
      "________": 7809,
      "sa": 7810,
      "▁android": 7811,
      "▁wedding": 7812,
      "▁pra": 7813,
      "▁rub": 7814,
      "▁movies": 7815,
      "isco": 7816,
      "[\"": 7817,
      "▁proud": 7818,
      "iche": 7819,
      "arp": 7820,
      "rum": 7821,
      "TC": 7822,
      "▁trig": 7823,
      "▁confirm": 7824,
      "▁obtained": 7825,
      "▁interpret": 7826,
      "message": 7827,
      "Yes": 7828,
      "▁weap": 7829,
      "▁wire": 7830,
      "▁teaching": 7831,
      "▁failure": 7832,
      "▁marriage": 7833,
      "▁Jud": 7834,
      "▁occup": 7835,
      "reens": 7836,
      "gent": 7837,
      "▁fabric": 7838,
      "uto": 7839,
      "▁soc": 7840,
      "iture": 7841,
      "▁cloud": 7842,
      "▁Ap": 7843,
      "main": 7844,
      "▁•": 7845,
      "▁cultural": 7846,
      "▁dies": 7847,
      "▁plastic": 7848,
      "▁hyp": 7849,
      "uted": 7850,
      "▁holiday": 7851,
      "را": 7852,
      "▁PR": 7853,
      "▁Scott": 7854,
      "ري": 7855,
      "▁Real": 7856,
      "▁cities": 7857,
      "▁lived": 7858,
      "▁argument": 7859,
      "othe": 7860,
      "▁chair": 7861,
      "▁fif": 7862,
      "▁Mel": 7863,
      "ون": 7864,
      "▁theory": 7865,
      "▁Back": 7866,
      "▁dedicated": 7867,
      "iences": 7868,
      "▁Id": 7869,
      "▁perman": 7870,
      "▁Water": 7871,
      "▁apparent": 7872,
      "▁approximately": 7873,
      "summary": 7874,
      "tenance": 7875,
      "▁gun": 7876,
      "▁leadership": 7877,
      "Well": 7878,
      "pc": 7879,
      "ani": 7880,
      "▁pregn": 7881,
      "▁Game": 7882,
      "▁noted": 7883,
      "▁trees": 7884,
      "▁Frank": 7885,
      "System": 7886,
      "לי": 7887,
      "▁auth": 7888,
      "gener": 7889,
      "▁sab": 7890,
      "ست": 7891,
      "▁Jul": 7892,
      "ormal": 7893,
      "true": 7894,
      "frame": 7895,
      "elij": 7896,
      "▁Union": 7897,
      "aming": 7898,
      "▁Arch": 7899,
      "local": 7900,
      "▁Kore": 7901,
      "▁accounts": 7902,
      "lie": 7903,
      "▁Ital": 7904,
      "vely": 7905,
      "▁Du": 7906,
      "▁Gal": 7907,
      "▁causes": 7908,
      "▁Sy": 7909,
      "▁chemical": 7910,
      "▁pero": 7911,
      "▁shift": 7912,
      "essions": 7913,
      "TO": 7914,
      "inations": 7915,
      "▁salt": 7916,
      "▁Management": 7917,
      "har": 7918,
      "▁crypt": 7919,
      "arts": 7920,
      "enu": 7921,
      "kin": 7922,
      "▁policies": 7923,
      "▁environmental": 7924,
      "▁equal": 7925,
      "▁transl": 7926,
      "▁Vis": 7927,
      "▁recommended": 7928,
      "▁mac": 7929,
      "▁]": 7930,
      "▁stopped": 7931,
      "oco": 7932,
      "tical": 7933,
      "▁sudden": 7934,
      "▁são": 7935,
      "last": 7936,
      "▁weak": 7937,
      "▁reb": 7938,
      "Your": 7939,
      "▁follows": 7940,
      "Are": 7941,
      "▁battery": 7942,
      "oute": 7943,
      "▁cette": 7944,
      "▁caught": 7945,
      "▁nucle": 7946,
      "▁During": 7947,
      "Gener": 7948,
      "▁observed": 7949,
      "unicip": 7950,
      "▁stores": 7951,
      "unning": 7952,
      "▁liv": 7953,
      "eper": 7954,
      "▁Science": 7955,
      "▁exciting": 7956,
      "▁faster": 7957,
      "draw": 7958,
      "▁desire": 7959,
      "▁enhance": 7960,
      "▁Obama": 7961,
      "================": 7962,
      "▁raise": 7963,
      "▁quot": 7964,
      "▁empres": 7965,
      "▁Bas": 7966,
      "cas": 7967,
      "▁</": 7968,
      "▁Brown": 7969,
      "UE": 7970,
      "Color": 7971,
      "▁Click": 7972,
      "itionally": 7973,
      "igo": 7974,
      "▁circumst": 7975,
      "▁survey": 7976,
      "▁Love": 7977,
      ". ": 7978,
      "▁ring": 7979,
      "lines": 7980,
      "▁busy": 7981,
      "▁Hill": 7982,
      "gers": 7983,
      "▁valu": 7984,
      "ali": 7985,
      "▁installed": 7986,
      "noon": 7987,
      "rete": 7988,
      "▁agent": 7989,
      "▁pandemic": 7990,
      "▁vend": 7991,
      "▁pelo": 7992,
      "web": 7993,
      "▁__": 7994,
      "never": 7995,
      "▁Rad": 7996,
      "▁friendly": 7997,
      "▁seat": 7998,
      "water": 7999,
      "osa": 8000,
      "▁tur": 8001,
      "imal": 8002,
      "▁Thank": 8003,
      "Response": 8004,
      "▁combined": 8005,
      "▁guard": 8006,
      "▁recipe": 8007,
      "▁também": 8008,
      "▁articles": 8009,
      "$\\": 8010,
      "▁beauty": 8011,
      "ATION": 8012,
      "▁chain": 8013,
      "▁ح": 8014,
      "▁artists": 8015,
      "▁jun": 8016,
      "▁Wil": 8017,
      "▁seek": 8018,
      "▁esp": 8019,
      "▁furn": 8020,
      "▁merc": 8021,
      "DS": 8022,
      "acle": 8023,
      "▁View": 8024,
      "related": 8025,
      "eah": 8026,
      "▁realize": 8027,
      "mt": 8028,
      "▁sau": 8029,
      "▁filter": 8030,
      "KE": 8031,
      "▁Atl": 8032,
      "▁locations": 8033,
      "▁Bit": 8034,
      "▁stre": 8035,
      "▁tum": 8036,
      "select": 8037,
      "▁dia": 8038,
      "▁signal": 8039,
      "▁carried": 8040,
      "▁Cup": 8041,
      "▁therapy": 8042,
      "▁writer": 8043,
      "▁Cir": 8044,
      "oding": 8045,
      "sembly": 8046,
      "ocolate": 8047,
      "weet": 8048,
      "▁pure": 8049,
      "▁Code": 8050,
      "▁fle": 8051,
      "▁ON": 8052,
      "jection": 8053,
      "▁stone": 8054,
      "burg": 8055,
      "_{\\": 8056,
      "▁Build": 8057,
      "irty": 8058,
      "▁prin": 8059,
      "▁alcohol": 8060,
      "▁synt": 8061,
      "▁Today": 8062,
      "exp": 8063,
      "▁AS": 8064,
      "etes": 8065,
      "claim": 8066,
      "client": 8067,
      "▁drugs": 8068,
      "▁Word": 8069,
      "▁kill": 8070,
      "fa": 8071,
      "▁stret": 8072,
      "▁beach": 8073,
      "▁centre": 8074,
      "▁arrived": 8075,
      "rect": 8076,
      "▁Tim": 8077,
      "▁films": 8078,
      "▁participants": 8079,
      "▁suit": 8080,
      "▁facilities": 8081,
      "▁dra": 8082,
      "▁considering": 8083,
      "▁affected": 8084,
      "▁crisis": 8085,
      "▁cin": 8086,
      "encing": 8087,
      "▁herself": 8088,
      "▁signs": 8089,
      "▁messages": 8090,
      "▁Elect": 8091,
      "▁depending": 8092,
      "ién": 8093,
      "hers": 8094,
      "▁remind": 8095,
      "struct": 8096,
      "▁Ir": 8097,
      "▁Gar": 8098,
      "▁launched": 8099,
      "▁ourselves": 8100,
      "▁manner": 8101,
      "▁tough": 8102,
      "▁volunte": 8103,
      "▁km": 8104,
      "▁Look": 8105,
      "okes": 8106,
      "▁aus": 8107,
      "▁ingredients": 8108,
      "▁bonus": 8109,
      "ingly": 8110,
      "▁belong": 8111,
      "phas": 8112,
      "azione": 8113,
      "▁subm": 8114,
      "Rep": 8115,
      "inating": 8116,
      "assert": 8117,
      "▁websites": 8118,
      "▁reco": 8119,
      "▁resident": 8120,
      "▁Who": 8121,
      "▁forced": 8122,
      "▁treated": 8123,
      "▁tells": 8124,
      "rical": 8125,
      "▁fourth": 8126,
      "▁editor": 8127,
      "gt": 8128,
      "dat": 8129,
      "▁Information": 8130,
      "poses": 8131,
      "▁laugh": 8132,
      "ket": 8133,
      "▁Germany": 8134,
      "▁dogs": 8135,
      "▁Soft": 8136,
      "▁dollars": 8137,
      "agg": 8138,
      "yan": 8139,
      "▁Ev": 8140,
      "▁Ill": 8141,
      "astructure": 8142,
      "▁sad": 8143,
      "Manager": 8144,
      "▁Care": 8145,
      "▁wal": 8146,
      "▁desk": 8147,
      "▁examples": 8148,
      "▁fantastic": 8149,
      "▁flight": 8150,
      "icit": 8151,
      "env": 8152,
      "▁cha": 8153,
      "iveness": 8154,
      "andon": 8155,
      "יר": 8156,
      "▁Both": 8157,
      "▁Under": 8158,
      "▁Acad": 8159,
      "▁objects": 8160,
      "Comm": 8161,
      "▁ath": 8162,
      "aires": 8163,
      "▁Americans": 8164,
      "▁End": 8165,
      "Field": 8166,
      "▁Canad": 8167,
      "▁fundament": 8168,
      "▁episode": 8169,
      "▁intended": 8170,
      "pol": 8171,
      "▁category": 8172,
      "▁Wood": 8173,
      "▁CB": 8174,
      "▁Bre": 8175,
      "▁worse": 8176,
      "▁Western": 8177,
      "cean": 8178,
      "ári": 8179,
      "PC": 8180,
      "ilos": 8181,
      "writ": 8182,
      "button": 8183,
      "▁youth": 8184,
      "Check": 8185,
      "format": 8186,
      "▁audio": 8187,
      "igration": 8188,
      "▁ru": 8189,
      "▁Sand": 8190,
      "▁Committee": 8191,
      "▁sister": 8192,
      "!!!": 8193,
      "udio": 8194,
      "▁isol": 8195,
      "▁NULL": 8196,
      "▁sides": 8197,
      "emos": 8198,
      "▁hero": 8199,
      "cd": 8200,
      "▁Chicago": 8201,
      "▁turns": 8202,
      "▁distributed": 8203,
      "wind": 8204,
      "ifest": 8205,
      "▁nine": 8206,
      "▁AD": 8207,
      "▁broken": 8208,
      "▁choices": 8209,
      "▁Therefore": 8210,
      "▁clar": 8211,
      "▁Team": 8212,
      "NS": 8213,
      "▁severe": 8214,
      "▁teachers": 8215,
      "bles": 8216,
      "pert": 8217,
      "▁Lear": 8218,
      "ignment": 8219,
      "▁ast": 8220,
      "▁Den": 8221,
      "▁mand": 8222,
      "▁Pay": 8223,
      "istration": 8224,
      "azz": 8225,
      "▁recorded": 8226,
      "rate": 8227,
      "rt": 8228,
      "▁standing": 8229,
      "itos": 8230,
      "▁diss": 8231,
      "oster": 8232,
      "▁mere": 8233,
      "asta": 8234,
      "height": 8235,
      "▁Pet": 8236,
      "▁CEO": 8237,
      "▁improved": 8238,
      "▁appearance": 8239,
      "▁shel": 8240,
      "▁fruit": 8241,
      "▁occasion": 8242,
      "▁explained": 8243,
      "▁Gen": 8244,
      "▁discount": 8245,
      "imately": 8246,
      "▁description": 8247,
      "▁assistance": 8248,
      "▁ci": 8249,
      "icians": 8250,
      "han": 8251,
      "▁favour": 8252,
      "▁bigger": 8253,
      "▁Show": 8254,
      "▁highlight": 8255,
      "produ": 8256,
      "▁aspects": 8257,
      "\\\\": 8258,
      "▁acid": 8259,
      "▁principal": 8260,
      "ship": 8261,
      "Every": 8262,
      "gas": 8263,
      "▁fees": 8264,
      "▁Card": 8265,
      "Am": 8266,
      "ivos": 8267,
      "??": 8268,
      "▁Inte": 8269,
      "▁Mass": 8270,
      "▁comme": 8271,
      "▁invent": 8272,
      "▁src": 8273,
      "▁square": 8274,
      "▁village": 8275,
      "src": 8276,
      "Back": 8277,
      "▁remaining": 8278,
      "▁violence": 8279,
      "▁African": 8280,
      "inar": 8281,
      "Wind": 8282,
      "▁fee": 8283,
      "▁icon": 8284,
      "▁sole": 8285,
      "▁kinds": 8286,
      "▁Ext": 8287,
      "./": 8288,
      "▁carbon": 8289,
      "▁Only": 8290,
      "omy": 8291,
      "▁relatively": 8292,
      "▁ol": 8293,
      "▁Land": 8294,
      "▁substant": 8295,
      "▁Fig": 8296,
      "▁Peter": 8297,
      "uz": 8298,
      "oker": 8299,
      "▁pil": 8300,
      "xture": 8301,
      "ifts": 8302,
      "▁Press": 8303,
      "▁greatest": 8304,
      "▁strategies": 8305,
      "▁fait": 8306,
      "▁Earth": 8307,
      "▁Engine": 8308,
      "static": 8309,
      "▁adults": 8310,
      "contain": 8311,
      "▁eu": 8312,
      "וב": 8313,
      "▁node": 8314,
      "▁ת": 8315,
      "▁announce": 8316,
      "▁Education": 8317,
      "Co": 8318,
      "ipl": 8319,
      "Please": 8320,
      "rypt": 8321,
      "▁ell": 8322,
      "▁empty": 8323,
      "▁Party": 8324,
      "person": 8325,
      "▁afternoon": 8326,
      "dir": 8327,
      "▁Japanese": 8328,
      "▁shock": 8329,
      "▁promote": 8330,
      "▁concerned": 8331,
      "ben": 8332,
      "▁poly": 8333,
      "▁committed": 8334,
      "▁contrast": 8335,
      "orith": 8336,
      "▁consumers": 8337,
      "▁Food": 8338,
      "▁crime": 8339,
      "▁aid": 8340,
      "▁suspect": 8341,
      ">>": 8342,
      "▁windows": 8343,
      "unes": 8344,
      "ugar": 8345,
      "ín": 8346,
      "▁vehicles": 8347,
      "▁charges": 8348,
      "num": 8349,
      "then": 8350,
      "▁Bur": 8351,
      "uls": 8352,
      "▁confidence": 8353,
      "ingu": 8354,
      "▁enable": 8355,
      "▁(!": 8356,
      "▁desde": 8357,
      "▁anywhere": 8358,
      "▁stim": 8359,
      "rij": 8360,
      "EW": 8361,
      "rooms": 8362,
      "▁gather": 8363,
      "▁Max": 8364,
      "▁differences": 8365,
      "hetic": 8366,
      "▁automatically": 8367,
      "uan": 8368,
      "▁shares": 8369,
      "agem": 8370,
      "''": 8371,
      "quer": 8372,
      "▁iron": 8373,
      "▁Light": 8374,
      "▁Robert": 8375,
      "omin": 8376,
      "output": 8377,
      "▁license": 8378,
      "▁twice": 8379,
      "▁decades": 8380,
      "▁inn": 8381,
      "ii": 8382,
      "▁Times": 8383,
      "arios": 8384,
      "▁depart": 8385,
      "▁citizens": 8386,
      "gage": 8387,
      "IST": 8388,
      "osite": 8389,
      "edly": 8390,
      "ushing": 8391,
      "▁excess": 8392,
      "▁muito": 8393,
      "▁repair": 8394,
      "AV": 8395,
      "kins": 8396,
      "ribe": 8397,
      "▁Sie": 8398,
      "▁responsibility": 8399,
      "▁prepare": 8400,
      "▁massive": 8401,
      "▁Profess": 8402,
      "▁witness": 8403,
      "▁detailed": 8404,
      "elled": 8405,
      "▁vida": 8406,
      "▁replace": 8407,
      "▁AR": 8408,
      "▁Maybe": 8409,
      "pecific": 8410,
      "▁trouble": 8411,
      "▁Plus": 8412,
      "▁chief": 8413,
      "▁constant": 8414,
      "▁vir": 8415,
      "Param": 8416,
      "▁Muse": 8417,
      "▁Louis": 8418,
      "▁Community": 8419,
      "▁pela": 8420,
      "▁guests": 8421,
      "swer": 8422,
      "▁picked": 8423,
      "emp": 8424,
      "▁officer": 8425,
      "▁consumer": 8426,
      "▁[]": 8427,
      "Pe": 8428,
      "razy": 8429,
      "Title": 8430,
      "▁Last": 8431,
      "udi": 8432,
      "zer": 8433,
      "▁telling": 8434,
      "▁Development": 8435,
      "oche": 8436,
      "▁serving": 8437,
      "▁Music": 8438,
      "▁/>": 8439,
      "▁generate": 8440,
      "▁Stand": 8441,
      "▁Ha": 8442,
      "▁Wal": 8443,
      "▁tail": 8444,
      "▁Call": 8445,
      "اد": 8446,
      "▁meat": 8447,
      "▁imagine": 8448,
      "Call": 8449,
      "▁Son": 8450,
      "ART": 8451,
      "▁Ter": 8452,
      "▁infr": 8453,
      "Fe": 8454,
      "ós": 8455,
      "▁domain": 8456,
      "▁cada": 8457,
      "aks": 8458,
      "▁intent": 8459,
      "▁yesterday": 8460,
      "event": 8461,
      "▁Vict": 8462,
      "▁paying": 8463,
      "ême": 8464,
      "▁readers": 8465,
      "ivered": 8466,
      "Mar": 8467,
      "▁seeking": 8468,
      "SON": 8469,
      "▁Nav": 8470,
      "▁television": 8471,
      "Part": 8472,
      "igan": 8473,
      "▁closer": 8474,
      "▁joy": 8475,
      "▁prison": 8476,
      "opyright": 8477,
      "AND": 8478,
      "▁dent": 8479,
      "▁Old": 8480,
      "▁unc": 8481,
      "▁neighborhood": 8482,
      "LC": 8483,
      "▁contra": 8484,
      "Rem": 8485,
      "▁Custom": 8486,
      "▁س": 8487,
      "find": 8488,
      "▁perspective": 8489,
      "▁None": 8490,
      "ypes": 8491,
      "▁faire": 8492,
      "▁Dig": 8493,
      "נה": 8494,
      "▁Nor": 8495,
      "▁awesome": 8496,
      "Source": 8497,
      "▁Prem": 8498,
      "▁accommod": 8499,
      "ações": 8500,
      "SD": 8501,
      "oration": 8502,
      "{{": 8503,
      "▁cycle": 8504,
      "▁confirmed": 8505,
      "▁الع": 8506,
      "▁ends": 8507,
      "▁machines": 8508,
      "isse": 8509,
      "ALL": 8510,
      "Rel": 8511,
      "▁begins": 8512,
      "▁forest": 8513,
      "▁register": 8514,
      "Click": 8515,
      "cht": 8516,
      "▁bringing": 8517,
      "▁facility": 8518,
      "adow": 8519,
[...]
